{
  "version": "1.0",
  "truncation": null,
  "padding": null,
  "added_tokens": [
    {
      "id": 0,
      "content": "<|bos|>",
      "single_word": false,
      "lstrip": false,
      "rstrip": false,
      "normalized": false,
      "special": true
    },
    {
      "id": 1,
      "content": "<|eos|>",
      "single_word": false,
      "lstrip": false,
      "rstrip": false,
      "normalized": false,
      "special": true
    },
    {
      "id": 2,
      "content": "<|pad|>",
      "single_word": false,
      "lstrip": false,
      "rstrip": false,
      "normalized": false,
      "special": true
    },
    {
      "id": 3,
      "content": "<|unk|>",
      "single_word": false,
      "lstrip": false,
      "rstrip": false,
      "normalized": false,
      "special": true
    }
  ],
  "normalizer": null,
  "pre_tokenizer": {
    "type": "ByteLevel",
    "add_prefix_space": false,
    "trim_offsets": true,
    "use_regex": true
  },
  "post_processor": {
    "type": "ByteLevel",
    "add_prefix_space": true,
    "trim_offsets": false,
    "use_regex": true
  },
  "decoder": {
    "type": "ByteLevel",
    "add_prefix_space": true,
    "trim_offsets": true,
    "use_regex": true
  },
  "model": {
    "type": "BPE",
    "dropout": null,
    "unk_token": "<|unk|>",
    "continuing_subword_prefix": null,
    "end_of_word_suffix": null,
    "fuse_unk": false,
    "byte_fallback": false,
    "ignore_merges": false,
    "vocab": {
      "<|bos|>": 0,
      "<|eos|>": 1,
      "<|pad|>": 2,
      "<|unk|>": 3,
      "!": 4,
      "\"": 5,
      "#": 6,
      "$": 7,
      "%": 8,
      "&": 9,
      "'": 10,
      "(": 11,
      ")": 12,
      "*": 13,
      "+": 14,
      ",": 15,
      "-": 16,
      ".": 17,
      "/": 18,
      "0": 19,
      "1": 20,
      "2": 21,
      "3": 22,
      "4": 23,
      "5": 24,
      "6": 25,
      "7": 26,
      "8": 27,
      "9": 28,
      ":": 29,
      ";": 30,
      "<": 31,
      "=": 32,
      ">": 33,
      "?": 34,
      "@": 35,
      "A": 36,
      "B": 37,
      "C": 38,
      "D": 39,
      "E": 40,
      "F": 41,
      "G": 42,
      "H": 43,
      "I": 44,
      "J": 45,
      "K": 46,
      "L": 47,
      "M": 48,
      "N": 49,
      "O": 50,
      "P": 51,
      "Q": 52,
      "R": 53,
      "S": 54,
      "T": 55,
      "U": 56,
      "V": 57,
      "W": 58,
      "X": 59,
      "Y": 60,
      "Z": 61,
      "[": 62,
      "\\": 63,
      "]": 64,
      "^": 65,
      "_": 66,
      "`": 67,
      "a": 68,
      "b": 69,
      "c": 70,
      "d": 71,
      "e": 72,
      "f": 73,
      "g": 74,
      "h": 75,
      "i": 76,
      "j": 77,
      "k": 78,
      "l": 79,
      "m": 80,
      "n": 81,
      "o": 82,
      "p": 83,
      "q": 84,
      "r": 85,
      "s": 86,
      "t": 87,
      "u": 88,
      "v": 89,
      "w": 90,
      "x": 91,
      "y": 92,
      "z": 93,
      "{": 94,
      "|": 95,
      "}": 96,
      "~": 97,
      "¡": 98,
      "¢": 99,
      "£": 100,
      "¤": 101,
      "¥": 102,
      "¦": 103,
      "§": 104,
      "¨": 105,
      "©": 106,
      "ª": 107,
      "«": 108,
      "¬": 109,
      "®": 110,
      "¯": 111,
      "°": 112,
      "±": 113,
      "²": 114,
      "³": 115,
      "´": 116,
      "µ": 117,
      "¶": 118,
      "·": 119,
      "¸": 120,
      "¹": 121,
      "º": 122,
      "»": 123,
      "¼": 124,
      "½": 125,
      "¾": 126,
      "¿": 127,
      "À": 128,
      "Á": 129,
      "Â": 130,
      "Ã": 131,
      "Ä": 132,
      "Å": 133,
      "Æ": 134,
      "Ç": 135,
      "È": 136,
      "É": 137,
      "Ê": 138,
      "Ë": 139,
      "Ì": 140,
      "Í": 141,
      "Î": 142,
      "Ï": 143,
      "Ð": 144,
      "Ñ": 145,
      "Ò": 146,
      "Ó": 147,
      "Ô": 148,
      "Õ": 149,
      "Ö": 150,
      "×": 151,
      "Ø": 152,
      "Ù": 153,
      "Ú": 154,
      "Û": 155,
      "Ü": 156,
      "Ý": 157,
      "Þ": 158,
      "ß": 159,
      "à": 160,
      "á": 161,
      "â": 162,
      "ã": 163,
      "ä": 164,
      "å": 165,
      "æ": 166,
      "ç": 167,
      "è": 168,
      "é": 169,
      "ê": 170,
      "ë": 171,
      "ì": 172,
      "í": 173,
      "î": 174,
      "ï": 175,
      "ð": 176,
      "ñ": 177,
      "ò": 178,
      "ó": 179,
      "ô": 180,
      "õ": 181,
      "ö": 182,
      "÷": 183,
      "ø": 184,
      "ù": 185,
      "ú": 186,
      "û": 187,
      "ü": 188,
      "ý": 189,
      "þ": 190,
      "ÿ": 191,
      "Ā": 192,
      "ā": 193,
      "Ă": 194,
      "ă": 195,
      "Ą": 196,
      "ą": 197,
      "Ć": 198,
      "ć": 199,
      "Ĉ": 200,
      "ĉ": 201,
      "Ċ": 202,
      "ċ": 203,
      "Č": 204,
      "č": 205,
      "Ď": 206,
      "ď": 207,
      "Đ": 208,
      "đ": 209,
      "Ē": 210,
      "ē": 211,
      "Ĕ": 212,
      "ĕ": 213,
      "Ė": 214,
      "ė": 215,
      "Ę": 216,
      "ę": 217,
      "Ě": 218,
      "ě": 219,
      "Ĝ": 220,
      "ĝ": 221,
      "Ğ": 222,
      "ğ": 223,
      "Ġ": 224,
      "ġ": 225,
      "Ģ": 226,
      "ģ": 227,
      "Ĥ": 228,
      "ĥ": 229,
      "Ħ": 230,
      "ħ": 231,
      "Ĩ": 232,
      "ĩ": 233,
      "Ī": 234,
      "ī": 235,
      "Ĭ": 236,
      "ĭ": 237,
      "Į": 238,
      "į": 239,
      "İ": 240,
      "ı": 241,
      "Ĳ": 242,
      "ĳ": 243,
      "Ĵ": 244,
      "ĵ": 245,
      "Ķ": 246,
      "ķ": 247,
      "ĸ": 248,
      "Ĺ": 249,
      "ĺ": 250,
      "Ļ": 251,
      "ļ": 252,
      "Ľ": 253,
      "ľ": 254,
      "Ŀ": 255,
      "ŀ": 256,
      "Ł": 257,
      "ł": 258,
      "Ń": 259,
      "ĠĀ": 260,
      ".Ā": 261,
      "Ā.Ā": 262,
      ",Ā": 263,
      "Ā,Ā": 264,
      "-Ā": 265,
      "(Ā": 266,
      "Ā-Ā": 267,
      "ĠĀ(Ā": 268,
      ")Ā": 269,
      "Ā.Ā.Ā": 270,
      "Ā)Ā": 271,
      "/Ā": 272,
      "Ā/Ā": 273,
      "'Ā": 274,
      "Ā'Ā": 275,
      ";Ā": 276,
      "[Ā": 277,
      "ĠĀ[Ā": 278,
      "Ā;Ā": 279,
      "Ā>": 280,
      "]Ā": 281,
      "Ā>Ā": 282,
      "ÃĪ": 283,
      "Ā<": 284,
      "ĠĀĘ": 285,
      "Āę": 286,
      "Ā.Ā]Ā": 287,
      "&Ā": 288,
      "Ā.Ā,Ā": 289,
      "ĠĀ&Ā": 290,
      ":Ā": 291,
      "Ġt": 292,
      "Ā<Ā/Ā": 293,
      "Ã¾": 294,
      "ĠĀ-Ā": 295,
      "Ġa": 296,
      "Ā.Ā)Ā": 297,
      "Ā:Ā": 298,
      "ĠĠ": 299,
      "Āē": 300,
      "Ā)": 301,
      "ĠĀ)Ā": 302,
      "Ã¦": 303,
      "he": 304,
      "in": 305,
      "Ġs": 306,
      "Ā]Ā": 307,
      "+Ā": 308,
      "<Ā": 309,
      "ĠĀ+Ā": 310,
      "Ġo": 311,
      "re": 312,
      "Ā<Ā": 313,
      "Ā.Ā<Ā": 314,
      "..": 315,
      "=Ā": 316,
      "Ġc": 317,
      "er": 318,
      "Ġw": 319,
      "]Ā.Ā": 320,
      "Ā)Ā.Ā": 321,
      "Ā)Ā,Ā": 322,
      "Ġthe": 323,
      "Ā(Ā": 324,
      "on": 325,
      "ĠĀ=Ā": 326,
      "Ġp": 327,
      "Ġb": 328,
      "?Ā": 329,
      "en": 330,
      "ĠĀÂ": 331,
      "ou": 332,
      "ăÂ": 333,
      "Ġ.Ā": 334,
      "Ġf": 335,
      "at": 336,
      "ÃĲ": 337,
      "it": 338,
      "ĀÂ": 339,
      "an": 340,
      "Ġm": 341,
      "Ġ1": 342,
      "is": 343,
      ",Ā.Ā.Ā": 344,
      "Ā.Ā)": 345,
      "or": 346,
      "Ā,Ā.Ā.Ā": 347,
      "ing": 348,
      "Ġd": 349,
      "Ġe": 350,
      "es": 351,
      "Ā]Ā.Ā": 352,
      "Ā.Ā.Ā.Ā": 353,
      "ĠĂ": 354,
      "Ġh": 355,
      "Ġl": 356,
      "ar": 357,
      "Ā?Ā": 358,
      "ĠĀÂ§": 359,
      "ĠĀÂ§Ā": 360,
      "Ġto": 361,
      "Ġof": 362,
      "Ã°": 363,
      "ed": 364,
      "ĀĔ": 365,
      "al": 366,
      "Ġ,Ā": 367,
      "Ā!": 368,
      "ĂÂ": 369,
      "Ġn": 370,
      "Ġan": 371,
      "āā": 372,
      "Ġin": 373,
      "ĠT": 374,
      "ĠI": 375,
      "Ā.Ā(Ā": 376,
      "Ãŀ": 377,
      "Ã©": 378,
      "om": 379,
      "Āāā": 380,
      "ĠA": 381,
      "ĬĂ": 382,
      "Ġg": 383,
      "as": 384,
      "Ġ(": 385,
      "ic": 386,
      "âĢ": 387,
      "Ā}": 388,
      "Ā-Ā-Ā": 389,
      "{Ā": 390,
      "Ā!Ā": 391,
      "....": 392,
      "[Ă": 393,
      "Ā.Ā)Ā,Ā": 394,
      "Ā>Ā.Ā]Ā": 395,
      "Ġ7": 396,
      "ĠS": 397,
      "ÃĮ": 398,
      "Ā)Ā;Ā": 399,
      "Ġ5": 400,
      "ve": 401,
      "le": 402,
      "Ġ6": 403,
      "Ġy": 404,
      "Ā-": 405,
      "Ā}Ā": 406,
      "ion": 407,
      "±ă": 408,
      "Ġand": 409,
      "us": 410,
      "ĂÂĬĂ": 411,
      "Ā.Ā;Ā": 412,
      "et": 413,
      "Ā[Ă": 414,
      "Ā.Ā]Ā.Ā": 415,
      "Âµ": 416,
      "ĠĀĕ": 417,
      "ot": 418,
      "ent": 419,
      "Ā{Ā": 420,
      "Ġyou": 421,
      "ll": 422,
      "ĠC": 423,
      "ĠW": 424,
      "Ġ4": 425,
      "Ġr": 426,
      "¿ă": 427,
      "Ġ2": 428,
      "Ġth": 429,
      "Ā>ĀĔ": 430,
      "Ġ8": 431,
      "Ā-Ā,Ā": 432,
      "Ā>Ā.Ā": 433,
      "Ġi": 434,
      "Â½": 435,
      "Ā]": 436,
      "Ā.Ā)Ā.Ā": 437,
      "Ġ/": 438,
      "Ġ3": 439,
      "ÃĤ": 440,
      "ĠM": 441,
      "Ġv": 442,
      "ut": 443,
      "Ā.Āę": 444,
      "ly": 445,
      "ay": 446,
      "âĢĻ": 447,
      "Ġbe": 448,
      "ăÂ¿ă": 449,
      "Ā.Ā:Ā": 450,
      "Ġor": 451,
      "Ā-Ā<Ā": 452,
      "ĠH": 453,
      "ct": 454,
      "ĥĂ": 455,
      "ow": 456,
      "Ãģ": 457,
      "Ġ|": 458,
      "Ġre": 459,
      "ĠP": 460,
      "Ġis": 461,
      "ĠO": 462,
      "ĠE": 463,
      "id": 464,
      "st": 465,
      "Ġ9": 466,
      "Â¹": 467,
      "ĠB": 468,
      "Ġfor": 469,
      "ÃĦ": 470,
      "ol": 471,
      "Ā]Ā,Ā": 472,
      "Ġha": 473,
      "ĠL": 474,
      "+ā": 475,
      "ĠĀ'Ā": 476,
      "se": 477,
      "ch": 478,
      "Ġu": 479,
      "ăÂ±ă": 480,
      "Ġon": 481,
      "ĠĀ?Ā": 482,
      "Ā+ā": 483,
      "ĠThe": 484,
      "ce": 485,
      "ĠĀ,Ā": 486,
      "ĠĀ]Ā": 487,
      "ri": 488,
      "Ă(Ā": 489,
      "am": 490,
      "Ġst": 491,
      "ĠD": 492,
      "........": 493,
      "ro": 494,
      "Ġhe": 495,
      "il": 496,
      "ke": 497,
      "ĠN": 498,
      "ur": 499,
      "im": 500,
      "ir": 501,
      "ig": 502,
      "Â²": 503,
      "ver": 504,
      "ad": 505,
      "Ãĥ": 506,
      "ĠĀ/Ā": 507,
      "ith": 508,
      "oo": 509,
      "Āēā": 510,
      "Âº": 511,
      "Ā.Ā)Ā;Ā": 512,
      "ee": 513,
      "Ā.Ā.Ā,Ā": 514,
      "Ġit": 515,
      "ĠâĢ": 516,
      "ation": 517,
      "ĮĂ": 518,
      "Ā>Ā]Ā": 519,
      "ĠR": 520,
      "ÃĢ": 521,
      "ĴĂ": 522,
      "ĀÂĬĂ": 523,
      "ter": 524,
      "Ġas": 525,
      "ome": 526,
      "Ā,Āę": 527,
      "ul": 528,
      "Ā>Ā,Ā": 529,
      "Ā.Ā-Ā": 530,
      "ld": 531,
      "ĀÂĴĂ": 532,
      "op": 533,
      "Â³": 534,
      "ĠG": 535,
      "ĀÂĮĂ": 536,
      "Ġwith": 537,
      "ĠF": 538,
      "Ġwe": 539,
      "ra": 540,
      "Ā[Ā": 541,
      "ĠY": 542,
      "Ġdo": 543,
      "ĂÂĥĂ": 544,
      "her": 545,
      "Ġne": 546,
      "ĠU": 547,
      "Ġus": 548,
      "Ā?": 549,
      "Ġat": 550,
      "Ġare": 551,
      "Ă)Ā": 552,
      "Ā)Ā:Ā": 553,
      "ĠJ": 554,
      "ĠĀÂ±ă": 555,
      "ss": 556,
      "ge": 557,
      "Ġwh": 558,
      "Ã¼": 559,
      "Ġex": 560,
      "Ġwas": 561,
      "...": 562,
      "ăÂ»": 563,
      "oun": 564,
      "Ġcon": 565,
      "Ġ.Ā.Ā": 566,
      "Ġhave": 567,
      "Ġme": 568,
      "Ġwor": 569,
      "ab": 570,
      "ist": 571,
      "¸ă": 572,
      "Ġthat": 573,
      "ht": 574,
      "ive": 575,
      "ate": 576,
      "ant": 577,
      "Ġgo": 578,
      "Ã¶": 579,
      "ds": 580,
      "ĕā": 581,
      "one": 582,
      "Ġk": 583,
      "th": 584,
      "Ġfr": 585,
      "un": 586,
      "ă-Ā": 587,
      "pp": 588,
      "Ġj": 589,
      "Ā)Ā.Ā]Ā": 590,
      "ac": 591,
      "Ā?Āę": 592,
      "ĠĀ{Ā": 593,
      "Ã¡": 594,
      "if": 595,
      "ain": 596,
      ")Ā,Ā": 597,
      "ĩ\"": 598,
      "ĀÂĩ\"": 599,
      "ers": 600,
      "Ġsh": 601,
      "oc": 602,
      "Ġcom": 603,
      "ess": 604,
      "ore": 605,
      "ăÂ¯": 606,
      "ĀÂĥĂ": 607,
      "qu": 608,
      "Ġsu": 609,
      "Ġver": 610,
      "ÉĻ": 611,
      "Āĕā": 612,
      "pe": 613,
      "Ġde": 614,
      "and": 615,
      "art": 616,
      "Ġ[": 617,
      "'s": 618,
      "ă,Ā": 619,
      "Ġby": 620,
      "ould": 621,
      "Ġnot": 622,
      "ă.Ā": 623,
      "Ā-Ā.Ā": 624,
      "Ā:ĀĔ": 625,
      "Ġal": 626,
      "\\Ă": 627,
      "ight": 628,
      "Ġ0": 629,
      "'t": 630,
      "Ġcan": 631,
      "um": 632,
      "te": 633,
      "ish": 634,
      "Ġ;Ā": 635,
      "os": 636,
      "est": 637,
      "all": 638,
      "Ġch": 639,
      "ill": 640,
      "Ġun": 641,
      "end": 642,
      "Ġli": 643,
      "Ġ-": 644,
      "Ġpro": 645,
      "Ā!Āę": 646,
      "ĠV": 647,
      "out": 648,
      "Ã¨": 649,
      "Ãķ": 650,
      "Ġpl": 651,
      "Ġab": 652,
      "ry": 653,
      "Ā\\Ă": 654,
      "ĠĠĠ": 655,
      "ast": 656,
      "Ġsome": 657,
      "Ġad": 658,
      "Ġfrom": 659,
      "),": 660,
      "ie": 661,
      "ook": 662,
      ")Ā.Ā": 663,
      "ust": 664,
      "ren": 665,
      "Ā]Ā.Ā.Ā": 666,
      "ak": 667,
      "ake": 668,
      "ary": 669,
      "Ġbut": 670,
      "ĠIt": 671,
      "ort": 672,
      "res": 673,
      "ment": 674,
      "ĠIn": 675,
      "our": 676,
      "Ġle": 677,
      "Ãħ": 678,
      "Ġyour": 679,
      "ğÂ": 680,
      "od": 681,
      "·Ā": 682,
      "ally": 683,
      "iv": 684,
      "ect": 685,
      "el": 686,
      "................": 687,
      "ich": 688,
      "ĠWe": 689,
      "Ġ.": 690,
      "hen": 691,
      "ag": 692,
      "/Ā,Ā": 693,
      "ĠâĢĶ": 694,
      "ite": 695,
      "ĠĀ/Ā,Ā": 696,
      "Ġup": 697,
      "·ă": 698,
      "ple": 699,
      "ap": 700,
      "em": 701,
      "Ġout": 702,
      "ous": 703,
      "omet": 704,
      "ĠWh": 705,
      "Ġvv": 706,
      "ong": 707,
      "hing": 708,
      "ĠĀ(Ā=Ā": 709,
      "´ă": 710,
      "ng": 711,
      "Ġhas": 712,
      "Ġar": 713,
      "ĠK": 714,
      "ity": 715,
      "nn": 716,
      "ard": 717,
      "ice": 718,
      "ions": 719,
      "Ġthis": 720,
      "Ġse": 721,
      "Ġso": 722,
      "00": 723,
      "ood": 724,
      "ine": 725,
      "Ãĩ": 726,
      "ăÂ·ă": 727,
      "red": 728,
      "ER": 729,
      "ies": 730,
      "ĠYou": 731,
      "ime": 732,
      "Ġvery": 733,
      "ăÂ»ă": 734,
      "ud": 735,
      "ind": 736,
      "age": 737,
      "ĠHe": 738,
      "ĀÂ·Ā": 739,
      "ia": 740,
      "vv": 741,
      "Ā>Ā)Ā": 742,
      "ĂÂ¸ă": 743,
      "der": 744,
      "Ġsomet": 745,
      "Ã¢": 746,
      "oug": 747,
      "Ġmy": 748,
      "Ġlike": 749,
      "Ġget": 750,
      "Ã³": 751,
      "Ġpe": 752,
      "Ġwork": 753,
      "cc": 754,
      "Ã´": 755,
      "ĠâĢĺ": 756,
      "Ġqu": 757,
      "ure": 758,
      "Ġen": 759,
      "Ãī": 760,
      ").": 761,
      "Ġabout": 762,
      "Ġbeen": 763,
      ".,": 764,
      "Ã«": 765,
      "av": 766,
      "pl": 767,
      "Ġcl": 768,
      "ff": 769,
      "ĠĀ[Ā?Ā": 770,
      "ost": 771,
      "Ā.Ā)Ā.Ā]Ā": 772,
      "Ġany": 773,
      "Ġall": 774,
      "to": 775,
      "ble": 776,
      "Ġte": 777,
      "Ġ...": 778,
      "Ã¤": 779,
      "ĠUn": 780,
      "Ġtime": 781,
      "ĠĀĀ": 782,
      "Ġher": 783,
      "ople": 784,
      "ree": 785,
      "Ġ~": 786,
      "ack": 787,
      "ĠEng": 788,
      "Ġpart": 789,
      "pt": 790,
      "are": 791,
      "Ġhad": 792,
      "Ãį": 793,
      "ĠĔ": 794,
      "Ġsomething": 795,
      "ĠĀ[Ă": 796,
      "ĠĀ)Ā,Ā": 797,
      "ces": 798,
      "ĠĀ.Ā": 799,
      "Ġmore": 800,
      "able": 801,
      "Ġet": 802,
      "Ġthey": 803,
      "ci": 804,
      "ĠĀÂ±ă.Ā": 805,
      "ach": 806,
      "ear": 807,
      "li": 808,
      "ther": 809,
      "orm": 810,
      "ame": 811,
      "Ãª": 812,
      "Ġshe": 813,
      "ob": 814,
      "og": 815,
      "Ãł": 816,
      "ass": 817,
      "Ā'": 818,
      "ress": 819,
      ";Ā.Ā.Ā": 820,
      "Ġwhich": 821,
      "ian": 822,
      "Ġsent": 823,
      "ays": 824,
      "Ġpeople": 825,
      "Ġone": 826,
      "ĠĀĀğ": 827,
      "Ġuse": 828,
      "ĠTh": 829,
      "Ġsp": 830,
      "Ġco": 831,
      "Ġoff": 832,
      "ĀÂ±ă": 833,
      "ink": 834,
      "ound": 835,
      "here": 836,
      "rit": 837,
      "Ġkn": 838,
      "Ā;Ā.Ā.Ā": 839,
      "ĠEngl": 840,
      "Ġph": 841,
      "ount": 842,
      "Ä±": 843,
      "Ġdid": 844,
      "Ġdon": 845,
      "own": 846,
      "Ġ\"": 847,
      "ăÂŃ": 848,
      "Ġetc": 849,
      "Ġif": 850,
      "ber": 851,
      "Ā.Ā'Ā": 852,
      "Ġform": 853,
      "Ġ10": 854,
      "ăÂ¯ă": 855,
      "bs": 856,
      "ang": 857,
      "ace": 858,
      "ings": 859,
      "Ġsenten": 860,
      "Ġag": 861,
      "ave": 862,
      "any": 863,
      "ĠWhat": 864,
      "Ġ=": 865,
      "Ġim": 866,
      "âĢĿ": 867,
      "Ġnew": 868,
      "ise": 869,
      "ue": 870,
      "ations": 871,
      "ĠShe": 872,
      "Ġpr": 873,
      "very": 874,
      "ĠĀ[Ā=Ā": 875,
      "ten": 876,
      "'m": 877,
      "ii": 878,
      "Ā,ĀĔ": 879,
      "ew": 880,
      "per": 881,
      "Ġcar": 882,
      "ough": 883,
      "so": 884,
      "ĠĀ[": 885,
      "ical": 886,
      "Ã®": 887,
      "ĠĀÂ¶": 888,
      "Ġpo": 889,
      "reat": 890,
      "Ā.Ā.Ā;Ā": 891,
      "Ġ'": 892,
      "ase": 893,
      "Ġwere": 894,
      "ĀÂ°": 895,
      "ĠEnglish": 896,
      "Ġfl": 897,
      "ep": 898,
      "Ġsee": 899,
      "Ā.Ā)Ā:Ā": 900,
      "Ã½": 901,
      "ĠĀ[Ā-Ā": 902,
      "ĠÂ": 903,
      "Ġcont": 904,
      "ven": 905,
      "Ā>Ā;Ā": 906,
      "Ġwhen": 907,
      "ict": 908,
      "Ā.ĀĔ": 909,
      "the": 910,
      "Ġpre": 911,
      "ran": 912,
      "Ġcomp": 913,
      "Ġ18": 914,
      "fe": 915,
      "Ġspe": 916,
      "Ġhis": 917,
      "Ġ19": 918,
      "Ā.Ā.ĀĘ": 919,
      "Ġother": 920,
      "ition": 921,
      "ĠSt": 922,
      "Ġthere": 923,
      "Ġgr": 924,
      "ĠCh": 925,
      "ick": 926,
      "aus": 927,
      "Ġgoing": 928,
      "Ġthem": 929,
      "ăÂ¯ăÂ±ă": 930,
      "ĠUnit": 931,
      "cl": 932,
      "ning": 933,
      "ăÂ±": 934,
      "Ġused": 935,
      "Ġper": 936,
      "Ġno": 937,
      "Â¿ă": 938,
      "Ġwho": 939,
      "Ġwill": 940,
      "ĠAn": 941,
      "Ġ)Ā": 942,
      "Ġ11": 943,
      "ăÂŃă": 944,
      "Ġthese": 945,
      "ial": 946,
      "Ġgood": 947,
      "ult": 948,
      "day": 949,
      "ire": 950,
      "Ġ.Ā]Ā": 951,
      "form": 952,
      "Ă[Ă": 953,
      "Ġdis": 954,
      "ĠCom": 955,
      "Ġcol": 956,
      "ide": 957,
      "]Ā,Ā": 958,
      "ĠĀ)Ā.Ā": 959,
      "ĠĀÂ¶Ā": 960,
      "iz": 961,
      "ark": 962,
      "Ġwords": 963,
      "act": 964,
      "ip": 965,
      "Ġtw": 966,
      "Ġmake": 967,
      "ving": 968,
      "Ġtra": 969,
      "ild": 970,
      "Ġyear": 971,
      "ft": 972,
      "ĠĀ(ĀĘ": 973,
      "Ġmean": 974,
      "Ġsa": 975,
      "Ġlook": 976,
      "Ġro": 977,
      "Ġaf": 978,
      "Ġsay": 979,
      "Ġwhat": 980,
      "Ġknow": 981,
      "Ġsentences": 982,
      "Ġalso": 983,
      "ru": 984,
      "Ġneed": 985,
      "ather": 986,
      "ody": 987,
      "rent": 988,
      "Ġlong": 989,
      "Ġgot": 990,
      "Ġdif": 991,
      "ne": 992,
      "Ġapp": 993,
      "alk": 994,
      "ock": 995,
      "aa": 996,
      "Ġthink": 997,
      "Ā.Ā.Ā[Ā": 998,
      "int": 999,
      "Ā.Ā)Ā]Ā": 1000,
      "sp": 1001,
      "ĠĀÂ´ă": 1002,
      "oy": 1003,
      "Ġ12": 1004,
      "Ġwant": 1005,
      "plete": 1006,
      "Ġfo": 1007,
      "ĠUse": 1008,
      "-Ā,Ā": 1009,
      "ph": 1010,
      "ove": 1011,
      "Ġthan": 1012,
      "ject": 1013,
      "Ġbu": 1014,
      "xt": 1015,
      "Ġbec": 1016,
      "RR": 1017,
      "ck": 1018,
      "not": 1019,
      "ence": 1020,
      "Ā-Ā)Ā": 1021,
      "Ġwould": 1022,
      "ated": 1023,
      "Ġbr": 1024,
      "ade": 1025,
      "ose": 1026,
      "Ā:": 1027,
      "Ġtheir": 1028,
      "Ġnow": 1029,
      "mer": 1030,
      "du": 1031,
      "lp": 1032,
      "ğÂ»": 1033,
      "ub": 1034,
      "Ġ;": 1035,
      "Ă-Ā": 1036,
      "ĠThere": 1037,
      "ance": 1038,
      "ăÂ¿": 1039,
      "ates": 1040,
      "we": 1041,
      "ĠSee": 1042,
      "Ġinto": 1043,
      "Ġ:Ā": 1044,
      "ail": 1045,
      "Ġcould": 1046,
      "$Ā": 1047,
      "ĠIf": 1048,
      "erson": 1049,
      "ually": 1050,
      "ens": 1051,
      "Ġfri": 1052,
      "ful": 1053,
      "Ġsm": 1054,
      "ms": 1055,
      "Ġfir": 1056,
      "resent": 1057,
      "Ġ................": 1058,
      "ă-ĀÂ¿ă": 1059,
      "uch": 1060,
      "Ġtwo": 1061,
      "Ġexam": 1062,
      "Ā>Ā(Ā": 1063,
      "Ġunder": 1064,
      "Ġlot": 1065,
      "ĠĀĐ": 1066,
      "ause": 1067,
      "ater": 1068,
      "ĀÂ°Ā": 1069,
      "Ā>Ā/Ā": 1070,
      "Ġâ": 1071,
      "Ġimp": 1072,
      "Ġbet": 1073,
      "Ā:Ā.Ā.Ā": 1074,
      "ĠĀ(Ā?Ā": 1075,
      "Ġtr": 1076,
      "Ġover": 1077,
      "Ġdidn": 1078,
      "Ġ+": 1079,
      "ĠĀ$Ā": 1080,
      "hed": 1081,
      "vel": 1082,
      "Ġ13": 1083,
      "'d": 1084,
      "Ä°": 1085,
      "Ġtake": 1086,
      "ĠThey": 1087,
      "Ġsomeone": 1088,
      ".)": 1089,
      ".]": 1090,
      "Â¾": 1091,
      "Ġam": 1092,
      "oney": 1093,
      "Ā%": 1094,
      "Ġdown": 1095,
      "Ġevery": 1096,
      "ouse": 1097,
      "con": 1098,
      "ug": 1099,
      "Ġke": 1100,
      "Ġacc": 1101,
      "ĠĀÂ»": 1102,
      "Ā?Ā.Ā.Ā": 1103,
      "Ġ/'": 1104,
      "ular": 1105,
      "ēā": 1106,
      "Ġhelp": 1107,
      "ĠĀĐğ": 1108,
      "ile": 1109,
      "ă)Ā": 1110,
      "ĀÂ¿ă": 1111,
      "ord": 1112,
      "wn": 1113,
      "ĠDo": 1114,
      "ăÂ»ăÂ¿ă": 1115,
      "ty": 1116,
      "Ā}Ā.Ā": 1117,
      "eel": 1118,
      "be": 1119,
      "Ġlast": 1120,
      "Ġman": 1121,
      "Ā>Ā:Ā": 1122,
      "Ġdoes": 1123,
      "Ā)Ā:ĀĔ": 1124,
      "Ġoften": 1125,
      "de": 1126,
      "ory": 1127,
      "Ġshould": 1128,
      "Ġtoo": 1129,
      "Ā>Ā/Ā<Ā": 1130,
      "Ġperson": 1131,
      "ool": 1132,
      "other": 1133,
      "vers": 1134,
      "Ġmuch": 1135,
      "Ġbl": 1136,
      "ative": 1137,
      "Ġexp": 1138,
      "ign": 1139,
      "Ġ,": 1140,
      "ĠQ": 1141,
      "Ã»": 1142,
      "ction": 1143,
      "urn": 1144,
      "Ā)Ā.Ā.Ā": 1145,
      "Ġche": 1146,
      "ĠĀÂ¸ă": 1147,
      "ix": 1148,
      "tern": 1149,
      "itt": 1150,
      "Ġhim": 1151,
      "Ġcomm": 1152,
      "Ġcor": 1153,
      "Ġmoney": 1154,
      "Ġ:": 1155,
      "aw": 1156,
      "Ġhome": 1157,
      "Ġbus": 1158,
      "ăÂ¸": 1159,
      "ks": 1160,
      "Ġjob": 1161,
      "Ġ17": 1162,
      "Ġeach": 1163,
      "):": 1164,
      "ăÂ´ă": 1165,
      "AT": 1166,
      "Ġcount": 1167,
      "Ġ(=": 1168,
      "up": 1169,
      "ĠĠĠĠ": 1170,
      "Ġbook": 1171,
      "Ġgen": 1172,
      "fore": 1173,
      "ages": 1174,
      "'ll": 1175,
      "Ġrec": 1176,
      "get": 1177,
      "ents": 1178,
      "Ġres": 1179,
      "Ġee": 1180,
      "Ġhere": 1181,
      "ious": 1182,
      "Ġend": 1183,
      "Ġfirst": 1184,
      "Ġjust": 1185,
      "sel": 1186,
      "âĢĶ": 1187,
      "ved": 1188,
      "Ġhapp": 1189,
      "me": 1190,
      "ĠCan": 1191,
      "row": 1192,
      "Ãĸ": 1193,
      "way": 1194,
      "Ġwee": 1195,
      "Ã¯": 1196,
      "ĠĘ": 1197,
      "EE": 1198,
      "Āāā-Ā": 1199,
      "Ġafter": 1200,
      "Ġday": 1201,
      "Ġ/\"": 1202,
      "ert": 1203,
      "Ġhol": 1204,
      "Ġthings": 1205,
      "ced": 1206,
      "ăă": 1207,
      "Ġquest": 1208,
      "ible": 1209,
      "Ġ.Ā.Ā.Ā": 1210,
      "nt": 1211,
      "Ġem": 1212,
      "ĠHow": 1213,
      "body": 1214,
      "les": 1215,
      "rite": 1216,
      "ĠĀ(Ā-Ā": 1217,
      "Ġbo": 1218,
      "Ġac": 1219,
      "ĠĀ<Ā": 1220,
      "Ġ14": 1221,
      "Ġplay": 1222,
      "Ġair": 1223,
      "ĠÂ©": 1224,
      "Ġbre": 1225,
      "Ġ15": 1226,
      "Ġcome": 1227,
      "Ġ)Ā.Ā": 1228,
      "Ġinform": 1229,
      "Ġback": 1230,
      "ĠĀēā": 1231,
      "Ġway": 1232,
      "Ġ16": 1233,
      "Ġput": 1234,
      "ways": 1235,
      "Ġopp": 1236,
      "Ġnoun": 1237,
      "ăÂ¸ă": 1238,
      "Ġter": 1239,
      "Ġsy": 1240,
      "Ġverbs": 1241,
      "Ā}Ā{Ā": 1242,
      "Ġwhere": 1243,
      "Ġusually": 1244,
      "ĠMy": 1245,
      ":ĀĔ": 1246,
      "ĠÄ°": 1247,
      "Ġcall": 1248,
      "Ġfeel": 1249,
      "Ġdes": 1250,
      "Ġ(-": 1251,
      "ras": 1252,
      "ib": 1253,
      "Ġstud": 1254,
      "imes": 1255,
      "cess": 1256,
      "ends": 1257,
      "ĠThis": 1258,
      "rest": 1259,
      "air": 1260,
      "ĀÂĴĂ[Ă": 1261,
      "aking": 1262,
      "Ġword": 1263,
      "thing": 1264,
      "Ġsc": 1265,
      "Ġbefore": 1266,
      "ath": 1267,
      "ork": 1268,
      "Ā.Āē": 1269,
      "ating": 1270,
      "AR": 1271,
      "ăÂ¿ă-Ā": 1272,
      "atch": 1273,
      "Ġinte": 1274,
      "oth": 1275,
      "ĠIs": 1276,
      "Ġact": 1277,
      "Ġsim": 1278,
      "ĠâĢŀ": 1279,
      "Ġdiffe": 1280,
      "Â»": 1281,
      "Ġq": 1282,
      "of": 1283,
      "ăÂ´": 1284,
      "abul": 1285,
      "Ġmost": 1286,
      "ull": 1287,
      "ons": 1288,
      "Ġdec": 1289,
      "Ġrep": 1290,
      "chool": 1291,
      "Ġverb": 1292,
      "ives": 1293,
      "Ġour": 1294,
      "Ā}Ā,Ā": 1295,
      "ily": 1296,
      "man": 1297,
      "ting": 1298,
      "ĠBrit": 1299,
      "Ġhouse": 1300,
      "hes": 1301,
      "ĠAd": 1302,
      "Ġwell": 1303,
      "Ġser": 1304,
      "Ġrel": 1305,
      "Ġpol": 1306,
      "ĠTo": 1307,
      "Ġbel": 1308,
      "Āęā": 1309,
      "abulary": 1310,
      "Ā-Āĕā": 1311,
      "Ġask": 1312,
      "Ġsame": 1313,
      "Ġmany": 1314,
      "eral": 1315,
      "Ġweek": 1316,
      "Ġ?": 1317,
      "Ġalways": 1318,
      "Ġyears": 1319,
      "Ġear": 1320,
      "ocabulary": 1321,
      "Ġbecause": 1322,
      "'ve": 1323,
      "Ġfind": 1324,
      "Ġold": 1325,
      "Ġop": 1326,
      "llow": 1327,
      "lect": 1328,
      "med": 1329,
      "Ġmade": 1330,
      "Ā>Ā]Ā.Ā": 1331,
      "Ā!Ā.Ā.Ā": 1332,
      "ident": 1333,
      "iss": 1334,
      "ĠWhen": 1335,
      "Ġproble": 1336,
      "Ā-Ā)Ā,Ā": 1337,
      "ĀÂ¸ă": 1338,
      "Ġbeing": 1339,
      "Ġread": 1340,
      "ES": 1341,
      "Ġits": 1342,
      "ĠComplete": 1343,
      "ors": 1344,
      "ĠAl": 1345,
      "Ġonly": 1346,
      "ec": 1347,
      "olog": 1348,
      "Ġmin": 1349,
      "Ġdri": 1350,
      "iday": 1351,
      "Ġrem": 1352,
      "Ġstart": 1353,
      "Ġmust": 1354,
      "Ġadj": 1355,
      "ĠZ": 1356,
      "ves": 1357,
      "Ġright": 1358,
      "Ġcons": 1359,
      "Ġfin": 1360,
      "Ġpresent": 1361,
      "ĠPh": 1362,
      "............": 1363,
      "vern": 1364,
      "Â«": 1365,
      "igh": 1366,
      "Ăăă": 1367,
      "ĠâĢľ": 1368,
      "ric": 1369,
      "itu": 1370,
      "Ġnum": 1371,
      "io": 1372,
      "Ġlear": 1373,
      "'re": 1374,
      "ax": 1375,
      "rect": 1376,
      "ĠAmer": 1377,
      "lic": 1378,
      "sw": 1379,
      "000": 1380,
      "Ġdoing": 1381,
      "Ã±": 1382,
      "ĠĀĄ": 1383,
      "Ā.Ā.Ā&Ā": 1384,
      "Ġsaid": 1385,
      "Ġadv": 1386,
      "ought": 1387,
      "Ġatt": 1388,
      "Ġ20": 1389,
      "77": 1390,
      "ired": 1391,
      "ĠĀÂĥĂ": 1392,
      "pos": 1393,
      "Ġhow": 1394,
      "ied": 1395,
      "ĠĀ@": 1396,
      "angu": 1397,
      "Ġsmall": 1398,
      "Ġwent": 1399,
      "Ġthr": 1400,
      "Ġaway": 1401,
      "Ġmay": 1402,
      "Ā'Ā,Ā": 1403,
      "old": 1404,
      "Â±ă": 1405,
      "ram": 1406,
      "Ġhot": 1407,
      "ah": 1408,
      "Ã¥": 1409,
      "ange": 1410,
      "Ā.Ā.Ā(Ā": 1411,
      "Ġusing": 1412,
      "ait": 1413,
      "ond": 1414,
      "Ġinv": 1415,
      "Ġwar": 1416,
      "ract": 1417,
      "gin": 1418,
      "Ġmet": 1419,
      "Ġlet": 1420,
      "Ġfe": 1421,
      "Ā.Ā)Ā(Ā": 1422,
      "ĠAr": 1423,
      "Ġschool": 1424,
      "pect": 1425,
      "Ġsth": 1426,
      "Ġagain": 1427,
      "Ġoppos": 1428,
      "ans": 1429,
      "ts": 1430,
      "ife": 1431,
      "iction": 1432,
      "ĠĀĔ": 1433,
      "als": 1434,
      "ĠNew": 1435,
      "Ġeven": 1436,
      "Ġmeet": 1437,
      "ĠĀÂ´": 1438,
      "Ġchild": 1439,
      "Ġ25": 1440,
      "Ġhard": 1441,
      "self": 1442,
      "Ġpop": 1443,
      "sh": 1444,
      "ures": 1445,
      "nnnn": 1446,
      "ics": 1447,
      "Ġcontin": 1448,
      "ys": 1449,
      "AN": 1450,
      "ĠNo": 1451,
      "iate": 1452,
      "erc": 1453,
      "Ā'Ā.Ā": 1454,
      "ae": 1455,
      "Ġ_": 1456,
      "Ġsub": 1457,
      "ĠAmeric": 1458,
      "Ġquestions": 1459,
      "akes": 1460,
      "Ġdifferent": 1461,
      "rong": 1462,
      "Ġpass": 1463,
      "Ġreg": 1464,
      "Ġmus": 1465,
      "ank": 1466,
      "ăÂ»ăÂ±ă": 1467,
      "pr": 1468,
      "ont": 1469,
      "ute": 1470,
      "Ġtalk": 1471,
      "lo": 1472,
      "ual": 1473,
      "Ġpast": 1474,
      "Ġten": 1475,
      "fer": 1476,
      "Ā>Ā-Ā": 1477,
      "Ġset": 1478,
      "Ġleft": 1479,
      "Ġinterest": 1480,
      "OU": 1481,
      "ific": 1482,
      "Ġmon": 1483,
      "Ġparty": 1484,
      "Ġroom": 1485,
      "Ġplace": 1486,
      "ET": 1487,
      "mb": 1488,
      "ĠRe": 1489,
      "Ā.Ā=Ā": 1490,
      "ried": 1491,
      "Ġnext": 1492,
      "Ġnever": 1493,
      "ities": 1494,
      "Ġsuch": 1495,
      "Ġ()": 1496,
      "cy": 1497,
      "Ġgive": 1498,
      "arge": 1499,
      "ĠâĹ": 1500,
      "Ġz": 1501,
      "Ġinter": 1502,
      "ĠÉĻ": 1503,
      "Ġnight": 1504,
      "Ġthrough": 1505,
      "Ġeee": 1506,
      "cept": 1507,
      "ON": 1508,
      "Ġass": 1509,
      "iet": 1510,
      "ivers": 1511,
      "Ġind": 1512,
      "gg": 1513,
      "Ġrain": 1514,
      "ope": 1515,
      "Ā>Ā)Ā,Ā": 1516,
      "Ġlangu": 1517,
      "lease": 1518,
      "ner": 1519,
      "ane": 1520,
      "ĠSome": 1521,
      "land": 1522,
      "ăÂ¶": 1523,
      "ĠAss": 1524,
      "Ġhappen": 1525,
      "Ā-Ā(Ā": 1526,
      "ssible": 1527,
      "ĠĀÂ»ă": 1528,
      "cre": 1529,
      "Ā-Ā:Ā": 1530,
      "Ġholiday": 1531,
      "ness": 1532,
      "Ġeat": 1533,
      "Ġob": 1534,
      "ution": 1535,
      "Ġrest": 1536,
      "Ġcountry": 1537,
      "Ġwon": 1538,
      "ments": 1539,
      "Ġgu": 1540,
      "Ā%Ā": 1541,
      "Ġgreat": 1542,
      "ĠYes": 1543,
      "Ġthree": 1544,
      "ĠĀĄğ": 1545,
      "Ġcent": 1546,
      "Ġgovern": 1547,
      "Ġcle": 1548,
      "ince": 1549,
      "Ġmight": 1550,
      "ĠIm": 1551,
      "Ġfam": 1552,
      "Ġcare": 1553,
      "Ġfollow": 1554,
      "Ā.Ā.Ā:Ā": 1555,
      "Ġkeep": 1556,
      "cri": 1557,
      "fl": 1558,
      "ower": 1559,
      "Ġstay": 1560,
      "Ā>Ā)Ā.Ā": 1561,
      "ished": 1562,
      "Ġphone": 1563,
      "Ġexpress": 1564,
      "Ġpa": 1565,
      "oup": 1566,
      "Ġtell": 1567,
      "ĠĀ(Ā:ĀĔ": 1568,
      "Ġty": 1569,
      "ised": 1570,
      "ĠVocabulary": 1571,
      "az": 1572,
      "Ġhaving": 1573,
      "ral": 1574,
      "Ā[": 1575,
      "Ġ)Ā,Ā": 1576,
      "Ġstop": 1577,
      "Ġfriends": 1578,
      "joy": 1579,
      "ational": 1580,
      "ĠUs": 1581,
      "Ġcorrect": 1582,
      "dition": 1583,
      "Ġfriend": 1584,
      "ă-Ā,Ā": 1585,
      "Ġpartic": 1586,
      "ĠEx": 1587,
      "Ġopposite": 1588,
      "ital": 1589,
      "Ġreally": 1590,
      "ĠJo": 1591,
      "Ġbad": 1592,
      "istant": 1593,
      "ĠVV": 1594,
      "orrow": 1595,
      "Ġsl": 1596,
      "Ġwrit": 1597,
      "ines": 1598,
      "ĠStates": 1599,
      "rr": 1600,
      "ĂÂĮĂ": 1601,
      "Ġ21": 1602,
      "Āĕ": 1603,
      "Ġsur": 1604,
      "Ġfew": 1605,
      "Ġlate": 1606,
      "iness": 1607,
      "Ġlive": 1608,
      "Ġshop": 1609,
      "Ġlist": 1610,
      "its": 1611,
      "Ġmor": 1612,
      "Ġ&": 1613,
      "ames": 1614,
      "ÃĹ": 1615,
      "ĠFor": 1616,
      "you": 1617,
      "fic": 1618,
      "Ġent": 1619,
      "fin": 1620,
      "Ġcoll": 1621,
      "gan": 1622,
      "}ğ": 1623,
      "ween": 1624,
      "br": 1625,
      "Ġfil": 1626,
      "Ġbetter": 1627,
      "Ġdoesn": 1628,
      "Ġcomplete": 1629,
      "ÃĹĀ": 1630,
      "Ġide": 1631,
      "Ġvvith": 1632,
      "Ġmar": 1633,
      "Ġtrain": 1634,
      "ister": 1635,
      "Ġvve": 1636,
      "urch": 1637,
      "Ġown": 1638,
      "Ġap": 1639,
      "Ġsitu": 1640,
      "hat": 1641,
      "ries": 1642,
      "Ġwalk": 1643,
      "Ġbas": 1644,
      "Ġprov": 1645,
      "mediate": 1646,
      "Ġinformation": 1647,
      "19": 1648,
      "Ġthen": 1649,
      "Ġes": 1650,
      "Ġpay": 1651,
      "ĠAf": 1652,
      "Ġconst": 1653,
      "Â§": 1654,
      "Ġdist": 1655,
      "Ġbreak": 1656,
      "do": 1657,
      "Ġmo": 1658,
      "Ġmeaning": 1659,
      "Ġwait": 1660,
      "Ā'Ā]Ā": 1661,
      "Ġenjoy": 1662,
      "Ġbetween": 1663,
      "EN": 1664,
      "Ġcour": 1665,
      "Ġansw": 1666,
      "Ġphras": 1667,
      "Ġsentence": 1668,
      "Ġworking": 1669,
      "Ġtry": 1670,
      "ands": 1671,
      "ĠUnited": 1672,
      "arm": 1673,
      "rop": 1674,
      "Ġ26": 1675,
      "ier": 1676,
      "ision": 1677,
      "stem": 1678,
      "<Ā/Ā": 1679,
      "ns": 1680,
      "ă:Ā": 1681,
      "Ġexample": 1682,
      "Ġnumber": 1683,
      "ĠĀÃĹĀ": 1684,
      "Ġinst": 1685,
      "clud": 1686,
      "Ġgiv": 1687,
      "Ġrun": 1688,
      "aper": 1689,
      "read": 1690,
      "Ġart": 1691,
      "Ġ,Ā.Ā.Ā": 1692,
      "Ā.Ā]": 1693,
      "ĠAs": 1694,
      "ural": 1695,
      "ords": 1696,
      "Ġ24": 1697,
      "min": 1698,
      "Ġcontinu": 1699,
      "IN": 1700,
      "Ġ..": 1701,
      "Ġel": 1702,
      "ets": 1703,
      "Ġfoot": 1704,
      "Ġbuy": 1705,
      "ğÂ»ă": 1706,
      "ok": 1707,
      "Ġ30": 1708,
      "go": 1709,
      "uth": 1710,
      "ERER": 1711,
      "Ġbro": 1712,
      "ĀÂŃ": 1713,
      "ăÂ¿ăÂ»ă": 1714,
      "la": 1715,
      "Ġorder": 1716,
      "Ġwithout": 1717,
      "Ġspeak": 1718,
      "Ġce": 1719,
      "18": 1720,
      "Ġlo": 1721,
      "Ġbuild": 1722,
      "Ġ)": 1723,
      "rence": 1724,
      "Ġimport": 1725,
      "ğÂ´": 1726,
      "Ġsw": 1727,
      "ĠSp": 1728,
      "ĠAt": 1729,
      "uss": 1730,
      "Ġext": 1731,
      "Ġsupp": 1732,
      "ficult": 1733,
      "fect": 1734,
      "Ġsk": 1735,
      "stand": 1736,
      "cial": 1737,
      "ĠâĹı": 1738,
      "itive": 1739,
      "Ġadject": 1740,
      "ided": 1741,
      "ĠLL": 1742,
      "Ġ]Ā": 1743,
      "ĠSh": 1744,
      "Ġanything": 1745,
      "Ġisn": 1746,
      "Ġturn": 1747,
      "ĠCon": 1748,
      "Ġbegin": 1749,
      "ğÂ´ă": 1750,
      "Ġ22": 1751,
      "iew": 1752,
      "ĠĀ@ğ": 1753,
      "ĠSe": 1754,
      "uring": 1755,
      "iversity": 1756,
      "co": 1757,
      "ik": 1758,
      "Ġgroup": 1759,
      "Ġcalled": 1760,
      "ex": 1761,
      "Ġsimple": 1762,
      "Ġopen": 1763,
      "Ġbig": 1764,
      "Ġhotel": 1765,
      "ictionary": 1766,
      "Ġbed": 1767,
      "Ġcap": 1768,
      "Ā>Ā)Ā<Ā": 1769,
      "led": 1770,
      "Ġtoday": 1771,
      "aur": 1772,
      "Ā-Ā;Ā": 1773,
      "Ġdep": 1774,
      "Ġsomebody": 1775,
      "Ġpri": 1776,
      "Ġbir": 1777,
      "ung": 1778,
      "ovv": 1779,
      "ron": 1780,
      "Ġmorning": 1781,
      "ĠX": 1782,
      "ither": 1783,
      "Ġlight": 1784,
      "Ġdifficult": 1785,
      "ote": 1786,
      "Ġweather": 1787,
      "Ġ*": 1788,
      "Ġarri": 1789,
      "Ġ=>": 1790,
      "Ġhead": 1791,
      "Ġdra": 1792,
      "Ġ23": 1793,
      "Ġpoint": 1794,
      "Ġev": 1795,
      "ĠPro": 1796,
      "Ġchildren": 1797,
      "Ā.Ā]Ā,Ā": 1798,
      "Ġyes": 1799,
      "âĢĶâĢĶ": 1800,
      "ember": 1801,
      "10": 1802,
      "ĠĀ.Ā.Ā": 1803,
      "ĠUser": 1804,
      "Ġname": 1805,
      "ĠHave": 1806,
      "ĠAssistant": 1807,
      "arch": 1808,
      "ĠĀ(Ā?": 1809,
      "Ġnice": 1810,
      "ĠFran": 1811,
      "ars": 1812,
      "ĠPl": 1813,
      "terday": 1814,
      "au": 1815,
      "ison": 1816,
      "Ġclass": 1817,
      "Ġ^": 1818,
      "Ġgl": 1819,
      "ti": 1820,
      "Ġspec": 1821,
      "Ġlanguage": 1822,
      "Ġlove": 1823,
      "Ġlaw": 1824,
      "Ġsystem": 1825,
      "ĠGer": 1826,
      "ĠAmerican": 1827,
      "ata": 1828,
      "ature": 1829,
      "Ā'Ā-Ā": 1830,
      "ists": 1831,
      "Ġlarge": 1832,
      "ĠCo": 1833,
      "OR": 1834,
      "Ġhour": 1835,
      "Ġpossible": 1836,
      "less": 1837,
      "ĠTV": 1838,
      "oman": 1839,
      "Ġpage": 1840,
      "Ġlife": 1841,
      "Ġtom": 1842,
      "ises": 1843,
      "Ġmusic": 1844,
      "Ġgovernment": 1845,
      "for": 1846,
      "ĠĂ,Ā": 1847,
      "Ġ27": 1848,
      "ffic": 1849,
      "Ġexpl": 1850,
      "Ġgeneral": 1851,
      "ĠBritish": 1852,
      "ni": 1853,
      "Ġve": 1854,
      "Ā>Ā.Ā(Ā": 1855,
      "outh": 1856,
      "Ġquite": 1857,
      "Ġpub": 1858,
      "Ġrather": 1859,
      "Ġdone": 1860,
      "Ġpain": 1861,
      "ale": 1862,
      "Ġcompany": 1863,
      "Ġchar": 1864,
      "ief": 1865,
      "aut": 1866,
      "my": 1867,
      "Ġprodu": 1868,
      "ffect": 1869,
      "ĠInd": 1870,
      "ă}ğ": 1871,
      "ÃĨ": 1872,
      "Ġinclud": 1873,
      "ury": 1874,
      "ross": 1875,
      "by": 1876,
      "Ā)Ā<Ā": 1877,
      "ĠĀÂ·Ā": 1878,
      "Ġproblem": 1879,
      "see": 1880,
      "ton": 1881,
      "Ġtired": 1882,
      "Ġleave": 1883,
      "Ġenough": 1884,
      "ittle": 1885,
      "cessary": 1886,
      "Ġsince": 1887,
      "Ġ28": 1888,
      "Ġ.Ā.ĀĘ": 1889,
      ");": 1890,
      "IT": 1891,
      "com": 1892,
      "ina": 1893,
      "Ġ....": 1894,
      "ĠAre": 1895,
      "ĠCol": 1896,
      "Ġshow": 1897,
      "Ġdr": 1898,
      "Ġexper": 1899,
      "Ġperfect": 1900,
      "ĠÐ": 1901,
      "Ġ31": 1902,
      "Ġpos": 1903,
      "Ġmod": 1904,
      "Ġcommon": 1905,
      "ues": 1906,
      "Ġboth": 1907,
      "gr": 1908,
      "Ġpict": 1909,
      "Ġhigh": 1910,
      "rans": 1911,
      "ash": 1912,
      "ĠThat": 1913,
      "ĠWhy": 1914,
      "Ġcolloc": 1915,
      "app": 1916,
      "port": 1917,
      "ma": 1918,
      "Ġele": 1919,
      "Ġ32": 1920,
      "Ġshort": 1921,
      "Ġcomput": 1922,
      "ology": 1923,
      "ited": 1924,
      "Ġmil": 1925,
      "resident": 1926,
      "hip": 1927,
      "Ġbest": 1928,
      "Ġtown": 1929,
      "Ġwind": 1930,
      "Ġeas": 1931,
      "oose": 1932,
      "Ġbusiness": 1933,
      "ĠLLM": 1934,
      "Ġdays": 1935,
      "Ġtri": 1936,
      "Ġbit": 1937,
      "Ā-Ā.Ā]Ā": 1938,
      "raph": 1939,
      "Ġfound": 1940,
      "Ġsugg": 1941,
      "ĀÂĴ": 1942,
      "Ġsuggest": 1943,
      "par": 1944,
      "Ġfood": 1945,
      "Ġhaven": 1946,
      "Ġmeans": 1947,
      "Ġless": 1948,
      "ĠSc": 1949,
      "ern": 1950,
      "Ġyesterday": 1951,
      "Ġfree": 1952,
      "Ġbra": 1953,
      "Ġstill": 1954,
      "orn": 1955,
      "Ġsing": 1956,
      "Ġnear": 1957,
      "Ġsure": 1958,
      "Ġseen": 1959,
      "aul": 1960,
      "Ġwatch": 1961,
      "Ġhope": 1962,
      "Ġanother": 1963,
      "Ġsoon": 1964,
      "ward": 1965,
      "Ġimportant": 1966,
      "'-": 1967,
      "ins": 1968,
      "ÉĻn": 1969,
      "Ġplan": 1970,
      "Ā]Ā:Ā": 1971,
      "Ġleg": 1972,
      "Ġ_)": 1973,
      "ience": 1974,
      "}Â§": 1975,
      "ā,Ā": 1976,
      "Ġunderstand": 1977,
      "OT": 1978,
      "tain": 1979,
      "ĠĀ}Â§": 1980,
      "Ġ40": 1981,
      "ism": 1982,
      "rench": 1983,
      "Ġcity": 1984,
      "Ġmark": 1985,
      "Ġadd": 1986,
      "Ġmonth": 1987,
      "Ġdi": 1988,
      "lling": 1989,
      "Ġvar": 1990,
      "Ġ............................": 1991,
      "cond": 1992,
      "Ġgiven": 1993,
      "Ġfact": 1994,
      "leep": 1995,
      "Ā(Ā-Ā": 1996,
      "Ġwhile": 1997,
      "ho": 1998,
      "Ġworld": 1999,
      "ĀÂŃă": 2000,
      "til": 2001,
      "Ġcur": 2002,
      "Ġill": 2003,
      "ruct": 2004,
      "Ġever": 2005,
      "Ġexerc": 2006,
      "ĠHere": 2007,
      "ertain": 2008,
      "Ġfilm": 2009,
      "Ġlooking": 2010,
      ")Ā.Ā]Ā": 2011,
      "inter": 2012,
      "ene": 2013,
      "Ġwasn": 2014,
      "Ġtomorrow": 2015,
      "Ġâĸ": 2016,
      "rom": 2017,
      "Ā+ā,Ā": 2018,
      "gy": 2019,
      "na": 2020,
      "tle": 2021,
      "ants": 2022,
      "ĠLe": 2023,
      "aps": 2024,
      "itions": 2025,
      "ards": 2026,
      "ized": 2027,
      "ăÂ±ăÂ»ă": 2028,
      "velop": 2029,
      "ently": 2030,
      "Ā)Ā]Ā,Ā": 2031,
      "Ġwater": 2032,
      "Ġ29": 2033,
      "Ġvis": 2034,
      "nect": 2035,
      "ĠCO": 2036,
      "Ġneg": 2037,
      "den": 2038,
      "ăÂ¯ăÂ±ă,Ā": 2039,
      "Ġ43": 2040,
      "idge": 2041,
      "Ģā": 2042,
      "Ġchange": 2043,
      "Ġelect": 2044,
      "Ġhear": 2045,
      "ably": 2046,
      "ted": 2047,
      "Ġlittle": 2048,
      "Ā!ĀĔ": 2049,
      "Ġ34": 2050,
      "11": 2051,
      "ăÂ±ă,Ā": 2052,
      "di": 2053,
      "ined": 2054,
      "Ġcat": 2055,
      "ST": 2056,
      "Ġthose": 2057,
      "Ġletter": 2058,
      "Ġnecessary": 2059,
      "uthor": 2060,
      "30": 2061,
      "rol": 2062,
      "ĠĀÂ¿ă": 2063,
      "Ġfar": 2064,
      "ĠLet": 2065,
      "Ġsol": 2066,
      "ĠWhere": 2067,
      "ĠWrite": 2068,
      "Ä±n": 2069,
      "St": 2070,
      "hich": 2071,
      "ls": 2072,
      "Ġwrite": 2073,
      "ĠBe": 2074,
      "ĠDid": 2075,
      "Ġthing": 2076,
      "ĠLook": 2077,
      "ĠDe": 2078,
      "Ġelse": 2079,
      "orth": 2080,
      "Ġcontinuous": 2081,
      "Ā)Ā.Ā.Ā.Ā": 2082,
      "Ġprog": 2083,
      "orry": 2084,
      "ăÂ¸ăÂ±ă": 2085,
      "Â·Ā": 2086,
      "Ġ................................": 2087,
      "ger": 2088,
      "Ãĳ": 2089,
      "ssss": 2090,
      "Ġbox": 2091,
      "Ġx": 2092,
      "Ġer": 2093,
      "Ġest": 2094,
      "Ġhand": 2095,
      "Ġref": 2096,
      "ĠNe": 2097,
      "Ġago": 2098,
      "Ġ.Ā)Ā": 2099,
      "Ġfun": 2100,
      "Ġla": 2101,
      "ĠDon": 2102,
      "ĠFrench": 2103,
      "Ġhair": 2104,
      "ĠâĢ¢": 2105,
      "Ġable": 2106,
      "ium": 2107,
      "ling": 2108,
      "Ġtax": 2109,
      "Ġfour": 2110,
      "amp": 2111,
      "ğÂ¿ă": 2112,
      "Ġevening": 2113,
      "Ġsituation": 2114,
      "?âĢĻ": 2115,
      "Ġocc": 2116,
      "acher": 2117,
      "Ġcouldn": 2118,
      "Ā)Āę": 2119,
      "Ġtreat": 2120,
      "Ġca": 2121,
      "Ġ60": 2122,
      "utes": 2123,
      "ieve": 2124,
      "Ġnouns": 2125,
      "Ġproblems": 2126,
      "Ġlearn": 2127,
      "Ġdet": 2128,
      "Ġformal": 2129,
      "Ġroad": 2130,
      "Ġearly": 2131,
      "Ġint": 2132,
      "Ġri": 2133,
      "Ġparticular": 2134,
      "cr": 2135,
      "ider": 2136,
      "ÉĻl": 2137,
      "Ġfire": 2138,
      "ĀÂĢā": 2139,
      "Ġdisc": 2140,
      "Ġstate": 2141,
      "ĠEE": 2142,
      "Ā)Ā-Ā": 2143,
      "Ġbi": 2144,
      "Ġyet": 2145,
      "Ġfamily": 2146,
      "uro": 2147,
      "hem": 2148,
      "gether": 2149,
      "ball": 2150,
      "ĠĀ-Āāā": 2151,
      "atic": 2152,
      "Ġesp": 2153,
      "ĠAust": 2154,
      "Ā.Ā]Ā.Ā.Ā": 2155,
      "Ġ45": 2156,
      "Ġstrong": 2157,
      "Ġgetting": 2158,
      "Ġrestaur": 2159,
      "ility": 2160,
      "Ġsometimes": 2161,
      "Ġremember": 2162,
      "ai": 2163,
      "Ġmain": 2164,
      "rents": 2165,
      "Ġfive": 2166,
      "Ġ49": 2167,
      "irect": 2168,
      "atter": 2169,
      "ă.Ā]Ā": 2170,
      "Ġuntil": 2171,
      "Ġae": 2172,
      "Ġmind": 2173,
      "Ġ54": 2174,
      "ĠPar": 2175,
      "Ġfollowing": 2176,
      "vice": 2177,
      "Ġgone": 2178,
      "Ġorgan": 2179,
      "Ġchang": 2180,
      "mp": 2181,
      "ĠSo": 2182,
      "Ġ55": 2183,
      "Ġshall": 2184,
      "inn": 2185,
      "Ġagainst": 2186,
      "Ġ53": 2187,
      "Ā]Ā;Ā": 2188,
      "Ġ37": 2189,
      "ĠPaul": 2190,
      "Ġstudy": 2191,
      "Ā>Ā)Ā;Ā": 2192,
      "ense": 2193,
      "Ġ56": 2194,
      "Ġexpect": 2195,
      "ret": 2196,
      "Ġlater": 2197,
      "Ġ35": 2198,
      "Ġbeh": 2199,
      "ĠChr": 2200,
      "Ġ33": 2201,
      "Ġrev": 2202,
      "ĠÂ©)": 2203,
      "Ġdoor": 2204,
      "Ġconnect": 2205,
      "Ġ44": 2206,
      "Ġcomputer": 2207,
      "alth": 2208,
      "ĠĀĔğ": 2209,
      "Ā(Ā'Ā": 2210,
      "ices": 2211,
      "ĠWhich": 2212,
      "Ġmove": 2213,
      "Ġtold": 2214,
      "Ġoffice": 2215,
      "ize": 2216,
      "Ġ!": 2217,
      "Ġ>": 2218,
      "Ā>Ā]Ā,Ā": 2219,
      "aly": 2220,
      "Ġagree": 2221,
      "position": 2222,
      "Ġtook": 2223,
      "Ġwish": 2224,
      "Ġfull": 2225,
      "Ġ50": 2226,
      "Ġ42": 2227,
      "cle": 2228,
      "Ā-Āāā": 2229,
      "Ġ46": 2230,
      "ĠBut": 2231,
      "Ġvvas": 2232,
      "Ā=Ā": 2233,
      "osp": 2234,
      "avy": 2235,
      "fess": 2236,
      "ĠTom": 2237,
      ".âĢĻ": 2238,
      "Ã£": 2239,
      "Ā,Ā)Ā": 2240,
      "Ġmach": 2241,
      "ilar": 2242,
      "ĠFrance": 2243,
      "rl": 2244,
      "Ġpar": 2245,
      "Ġ41": 2246,
      "Ġstand": 2247,
      "Ġphrasal": 2248,
      "work": 2249,
      "Ġ52": 2250,
      "use": 2251,
      "Ġcold": 2252,
      "ondon": 2253,
      "Ġ48": 2254,
      "Ġ36": 2255,
      "ĠPlease": 2256,
      "Ġcourse": 2257,
      "Ġ(Ā": 2258,
      "ĠĀāā": 2259,
      "Ġmeeting": 2260,
      ".'": 2261,
      "ell": 2262,
      "yn": 2263,
      "Ġdictionary": 2264,
      "Ġkind": 2265,
      "Ġvvords": 2266,
      "uit": 2267,
      "Ā.Ā.Ā?Ā": 2268,
      "ĠComp": 2269,
      "nl": 2270,
      "ă<Ā": 2271,
      "ĠÃ": 2272,
      "Ġtogether": 2273,
      "oment": 2274,
      "Ġpron": 2275,
      "ăÂ·": 2276,
      "Ġround": 2277,
      "ument": 2278,
      "Ġresult": 2279,
      "Ġlearning": 2280,
      "Ġ38": 2281,
      "ĠLondon": 2282,
      "orts": 2283,
      "ccess": 2284,
      "Ġquick": 2285,
      "mon": 2286,
      "nis": 2287,
      "Ġcut": 2288,
      "Ġcri": 2289,
      "Ġval": 2290,
      "Ġconc": 2291,
      "ples": 2292,
      "ĀÂ°Ā.Ā": 2293,
      "Ġexpressions": 2294,
      "oint": 2295,
      "reen": 2296,
      "ĠAll": 2297,
      "Ġprot": 2298,
      "oud": 2299,
      "Ġduring": 2300,
      "Ġins": 2301,
      "Ġ47": 2302,
      "Ġteacher": 2303,
      "ăÂ¸ăÂ¿ă": 2304,
      "Ġ?Ā": 2305,
      "aving": 2306,
      "Ġidea": 2307,
      "'),": 2308,
      "Ġfall": 2309,
      "ĠAN": 2310,
      "ĠEvery": 2311,
      "Â±ă)Ā": 2312,
      "where": 2313,
      "Ġfore": 2314,
      "ăÂ»ăÂ·ă": 2315,
      "ĠVer": 2316,
      "Ġgener": 2317,
      "Ġsn": 2318,
      "ference": 2319,
      "ju": 2320,
      "Ġtable": 2321,
      "Ġpi": 2322,
      "Ġdevelop": 2323,
      "Ġnews": 2324,
      "Ġsaw": 2325,
      "Ġ51": 2326,
      "let": 2327,
      "ĠGreat": 2328,
      "Ġadvice": 2329,
      "Ā)Ā]Ā.Ā": 2330,
      "ament": 2331,
      "ffee": 2332,
      "Ġprom": 2333,
      "AL": 2334,
      "ared": 2335,
      "inem": 2336,
      "ĠOK": 2337,
      "Ġdescri": 2338,
      "Ġsal": 2339,
      "ese": 2340,
      "ĠSar": 2341,
      "Ġtravel": 2342,
      "Ġmaking": 2343,
      "Ā.Ā:ĀĔ": 2344,
      "Ġprob": 2345,
      "ready": 2346,
      "Ā>ĀÂ·Ā": 2347,
      "Ġequ": 2348,
      "ention": 2349,
      "ĠOne": 2350,
      "Ġmem": 2351,
      "Ġaround": 2352,
      "Ġinformal": 2353,
      "Ā)ĀÂ": 2354,
      "Ġmed": 2355,
      "ered": 2356,
      "uck": 2357,
      "Ġgir": 2358,
      "lege": 2359,
      "Ġclot": 2360,
      "af": 2361,
      "ping": 2362,
      "Ġbank": 2363,
      "ĂÂĬ": 2364,
      "ĂÂĴĂ": 2365,
      "uture": 2366,
      "ĠUnits": 2367,
      "book": 2368,
      "ides": 2369,
      "cially": 2370,
      "Ġlost": 2371,
      "Ġ39": 2372,
      "Ġstre": 2373,
      "Ġsecond": 2374,
      "van": 2375,
      "Ġface": 2376,
      "Ġdata": 2377,
      "omm": 2378,
      "ĠPe": 2379,
      "ĠOn": 2380,
      "Ġspecial": 2381,
      "ĠÂ£": 2382,
      "no": 2383,
      "Ġwhe": 2384,
      "Ġhum": 2385,
      "osed": 2386,
      "Ġflat": 2387,
      "duc": 2388,
      "conom": 2389,
      "Ġbuilding": 2390,
      "WN": 2391,
      "Ġsb": 2392,
      "ăÂ¶ă": 2393,
      "ĠAb": 2394,
      "ĠOf": 2395,
      "unch": 2396,
      "ĠAm": 2397,
      "used": 2398,
      "14": 2399,
      "Ġpost": 2400,
      "Ġdiv": 2401,
      "OM": 2402,
      "Ġcr": 2403,
      "Ġrestaurant": 2404,
      "12": 2405,
      "line": 2406,
      "Ġsound": 2407,
      "Ġsign": 2408,
      "ising": 2409,
      "Ġthought": 2410,
      "15": 2411,
      "ient": 2412,
      "oms": 2413,
      "ĠĀ(Ā?Ā)Ā": 2414,
      "tr": 2415,
      "Ġpat": 2416,
      "Ġgave": 2417,
      "Ġorig": 2418,
      "aces": 2419,
      "oes": 2420,
      "Ā>Ā<Ā": 2421,
      "Ġfast": 2422,
      "alf": 2423,
      "Ġreal": 2424,
      "Ġbooks": 2425,
      "nd": 2426,
      "Ġ\\": 2427,
      "ĠOF": 2428,
      "Ġwear": 2429,
      "Ġadver": 2430,
      "+Ā<Ā/Ā": 2431,
      ".\"": 2432,
      "have": 2433,
      "Ġav": 2434,
      "ĠOr": 2435,
      "Ġbrother": 2436,
      "Ġparents": 2437,
      "inema": 2438,
      "?)": 2439,
      "oci": 2440,
      "II": 2441,
      "ĀĘ": 2442,
      "erv": 2443,
      "isa": 2444,
      "that": 2445,
      "Ġinteresting": 2446,
      "Ġcre": 2447,
      "ĀÂ¯": 2448,
      "und": 2449,
      "ă]Ā.Ā": 2450,
      "ĠAny": 2451,
      "Ġminutes": 2452,
      "ğÂ´ăÂ¿ă": 2453,
      "Ġpublic": 2454,
      "Ġcollocations": 2455,
      "ĠAp": 2456,
      "Ġarea": 2457,
      "Ġcoffee": 2458,
      "Ġphot": 2459,
      "urope": 2460,
      "Ġcase": 2461,
      "ony": 2462,
      "Ġ57": 2463,
      "ately": 2464,
      "ped": 2465,
      "Ġ100": 2466,
      "Ġincre": 2467,
      "ĂÂĥĂ(Ā": 2468,
      "aken": 2469,
      "Ġexperience": 2470,
      "iod": 2471,
      "Ġanim": 2472,
      "rove": 2473,
      "ĠWho": 2474,
      "ua": 2475,
      "Ġmoment": 2476,
      "Ġret": 2477,
      "ĠPresident": 2478,
      "ĠThese": 2479,
      "eng": 2480,
      "ĠEngland": 2481,
      "Ā%Ă": 2482,
      "Ġhappened": 2483,
      "ĠSarah": 2484,
      "raid": 2485,
      "ĠĀÂ±ă-Ā": 2486,
      "ien": 2487,
      "Ġcame": 2488,
      "Ġbri": 2489,
      "Ġexc": 2490,
      "Ġpolit": 2491,
      "ĠScot": 2492,
      "hn": 2493,
      "Ġtem": 2494,
      "Ġplease": 2495,
      "Ġed": 2496,
      "Ġsun": 2497,
      "Ġalready": 2498,
      "ĠInter": 2499,
      "Ġprefer": 2500,
      "ARR": 2501,
      "bo": 2502,
      "can": 2503,
      "Ġ'Ā": 2504,
      "Ġtrans": 2505,
      "Ġsorry": 2506,
      "Ġmen": 2507,
      "ĠPre": 2508,
      "ĠGr": 2509,
      "range": 2510,
      "Ġpolice": 2511,
      "Ġbeginning": 2512,
      "ster": 2513,
      "Ġkey": 2514,
      "Ġcinema": 2515,
      "Ġsec": 2516,
      "Ġoffic": 2517,
      "Ġdrive": 2518,
      "Ġpres": 2519,
      "ĠSec": 2520,
      "Ġstarted": 2521,
      "Ġnegative": 2522,
      "Ġcertain": 2523,
      "ada": 2524,
      "Ġchurch": 2525,
      "Ġclean": 2526,
      "IC": 2527,
      "eal": 2528,
      "mar": 2529,
      "ring": 2530,
      "Ġtion": 2531,
      "Ġ58": 2532,
      "ounds": 2533,
      "ERT": 2534,
      "ograph": 2535,
      "Ġsubject": 2536,
      "Ġobject": 2537,
      "ĠImages": 2538,
      "Ġanswer": 2539,
      "',": 2540,
      "IS": 2541,
      "Ġtop": 2542,
      "ason": 2543,
      "Ġyoung": 2544,
      "Ġsuccess": 2545,
      "ĠState": 2546,
      "ches": 2547,
      "Ġfuture": 2548,
      "ĠYOU": 2549,
      "Ġlead": 2550,
      "bre": 2551,
      "dle": 2552,
      "yl": 2553,
      "Ġtimes": 2554,
      "anks": 2555,
      "Ġtyp": 2556,
      "Ġadjective": 2557,
      "Ġdrink": 2558,
      "ĠĀ(ĀÂ±ă)Ā": 2559,
      "ache": 2560,
      "Ġsum": 2561,
      "Ġtext": 2562,
      "Ġdecided": 2563,
      "vi": 2564,
      "Ā-Ā]Ā.Ā": 2565,
      "ĠPut": 2566,
      "veral": 2567,
      "Ġgoes": 2568,
      ".;": 2569,
      "was": 2570,
      "Ġpie": 2571,
      "Ġclose": 2572,
      "Ġcheck": 2573,
      "ĠMe": 2574,
      "Ġstation": 2575,
      "Ġjour": 2576,
      "Ġtalking": 2577,
      "Ġanswers": 2578,
      "17": 2579,
      "AM": 2580,
      "bl": 2581,
      "che": 2582,
      "rm": 2583,
      "ilt": 2584,
      "Ġdefin": 2585,
      "like": 2586,
      "Ġforms": 2587,
      "Ġ<": 2588,
      "ĠON": 2589,
      "que": 2590,
      "ĠAnd": 2591,
      "Ġquestion": 2592,
      "Ġ]": 2593,
      "Ġland": 2594,
      "etty": 2595,
      "Ġ/,": 2596,
      "Ġyourself": 2597,
      "Ġbring": 2598,
      "Ġmarried": 2599,
      "Ġbody": 2600,
      "icle": 2601,
      "Ġ70": 2602,
      "pecially": 2603,
      "Ġâĸł": 2604,
      "Ġ$": 2605,
      "ĠEurope": 2606,
      "une": 2607,
      "Ġliving": 2608,
      "Ġtraffic": 2609,
      "pro": 2610,
      "Ġ-Ā": 2611,
      "Ġing": 2612,
      "Ġsister": 2613,
      "cient": 2614,
      "Ġsimilar": 2615,
      "Ġwindow": 2616,
      "RE": 2617,
      "Ġsix": 2618,
      "Ġmist": 2619,
      "ĠUN": 2620,
      "Ġstudents": 2621,
      "ape": 2622,
      "ensive": 2623,
      "iin": 2624,
      "Ā,Ā.Ā.Ā&Ā": 2625,
      "ians": 2626,
      "rt": 2627,
      "side": 2628,
      "Ġma": 2629,
      "ĠĂ.Ā": 2630,
      "Ġnewsp": 2631,
      "Ġcaus": 2632,
      "iter": 2633,
      "Ġdirect": 2634,
      "ĠAnn": 2635,
      "ĠMar": 2636,
      "Ġproper": 2637,
      "Ġafraid": 2638,
      "Ġ........................": 2639,
      "lt": 2640,
      "she": 2641,
      "Ġbar": 2642,
      "unic": 2643,
      "Ġfeeling": 2644,
      "Ā.Ā.Ā)Ā": 2645,
      "lled": 2646,
      "ĠBritain": 2647,
      "Ġaccident": 2648,
      "Ġhur": 2649,
      "ĂÂĬĂ-Ā": 2650,
      "Ġtennis": 2651,
      "Ġpark": 2652,
      "Ġpract": 2653,
      "itution": 2654,
      "Ġang": 2655,
      "Ġbecome": 2656,
      "ght": 2657,
      "Ġton": 2658,
      "enn": 2659,
      "ĠMin": 2660,
      "Ġchem": 2661,
      "Ā.Ā.ĀĔ": 2662,
      "ĠĀ)Ā;Ā": 2663,
      "Ġey": 2664,
      "Ġann": 2665,
      "elf": 2666,
      "Ġeverything": 2667,
      "Ġtype": 2668,
      "ming": 2669,
      "ăā": 2670,
      "Ġ59": 2671,
      "Ġrece": 2672,
      "ĠĀÂ¶ă": 2673,
      "Ġpictures": 2674,
      "AS": 2675,
      "ka": 2676,
      "Ġnorm": 2677,
      "Ġ71": 2678,
      "ĠCl": 2679,
      "ĠWould": 2680,
      "ield": 2681,
      "Ġpreposition": 2682,
      "Ġwaiting": 2683,
      "Ā?ĀĔ": 2684,
      "ăÂ±ă-Ā": 2685,
      "Ġwrong": 2686,
      "Ā,Ā.Ā.ĀĘ": 2687,
      "Ġeffect": 2688,
      "ĠGo": 2689,
      "acter": 2690,
      "Ġserious": 2691,
      "Ā(Ā-Ā)Ā": 2692,
      "Ġprobably": 2693,
      "Ġred": 2694,
      "ains": 2695,
      "ĠKate": 2696,
      "full": 2697,
      "Ġeconom": 2698,
      "ĠCf": 2699,
      "owers": 2700,
      "ĠFr": 2701,
      "ump": 2702,
      "Ġarch": 2703,
      "Ġorigin": 2704,
      "rs": 2705,
      "Ġcook": 2706,
      "itary": 2707,
      "Ġsuit": 2708,
      "ressed": 2709,
      "Ġsleep": 2710,
      "ased": 2711,
      "Ġmanag": 2712,
      "ĠJoe": 2713,
      "Ġclothes": 2714,
      "The": 2715,
      "ha": 2716,
      "ĠTe": 2717,
      "Ġ(~": 2718,
      "rib": 2719,
      "Ġcontrol": 2720,
      "aaaa": 2721,
      "ospital": 2722,
      "13": 2723,
      "ken": 2724,
      "Ġpur": 2725,
      "Ġdark": 2726,
      "Ġinc": 2727,
      "Ġintern": 2728,
      "Ġ66": 2729,
      "ĠCor": 2730,
      "Ġir": 2731,
      "olute": 2732,
      "Ġprocess": 2733,
      "ode": 2734,
      "Ġtrue": 2735,
      "fi": 2736,
      "ĠĀ!": 2737,
      ".Ā]Ā": 2738,
      "Ā>Ā{Ā": 2739,
      "ann": 2740,
      ".....": 2741,
      "ctor": 2742,
      "Ġtaken": 2743,
      "Ġtas": 2744,
      "ĠSomet": 2745,
      "Ġ80": 2746,
      "Ġclear": 2747,
      "Ġlm": 2748,
      "ĠGe": 2749,
      "Ġjo": 2750,
      "Ġnote": 2751,
      "Ġflo": 2752,
      "Ġbelow": 2753,
      "Āēā-Ā": 2754,
      "ĠĀÂ´ă.Ā": 2755,
      "tt": 2756,
      "ĠĀ(ĀÂ": 2757,
      "Ġoper": 2758,
      "Ġseveral": 2759,
      "ăÂ´ăÂ¿ă": 2760,
      "Ġauthor": 2761,
      "Ġcup": 2762,
      "pper": 2763,
      "Ġworks": 2764,
      "count": 2765,
      "Ġę": 2766,
      "inion": 2767,
      "Ġcountries": 2768,
      "Ġespecially": 2769,
      "Ġarrived": 2770,
      "ĠPlus": 2771,
      "Stock": 2772,
      "iol": 2773,
      "with": 2774,
      "ying": 2775,
      "Ġfail": 2776,
      "ĠAg": 2777,
      "ically": 2778,
      "ĠSouth": 2779,
      "Ġra": 2780,
      "ified": 2781,
      "ze": 2782,
      "Ġnames": 2783,
      "ĠLisa": 2784,
      "ÉĻÉĻ": 2785,
      "tem": 2786,
      "Ġlisten": 2787,
      "Ġadjectives": 2788,
      "Ġdin": 2789,
      "ended": 2790,
      "Ġasked": 2791,
      "Ġhours": 2792,
      "HE": 2793,
      "iu": 2794,
      "ĠAct": 2795,
      "Ġrad": 2796,
      "Ġuniversity": 2797,
      "Ġ192": 2798,
      "LI": 2799,
      "Ġple": 2800,
      "Ġbag": 2801,
      "aster": 2802,
      "arden": 2803,
      "Ġperiod": 2804,
      "Ġwritten": 2805,
      "Ġmachine": 2806,
      "Ġda": 2807,
      "Ġhist": 2808,
      "ili": 2809,
      "Ġterms": 2810,
      "Ġsoc": 2811,
      "Ġpaper": 2812,
      "ator": 2813,
      "Ġmakes": 2814,
      "Ġbeaut": 2815,
      "ĠHel": 2816,
      "Ġiss": 2817,
      "Ġsea": 2818,
      "Ġactiv": 2819,
      "Ġvisit": 2820,
      "ding": 2821,
      "Ġwoman": 2822,
      "Ġfav": 2823,
      "Ġ73": 2824,
      "ĠMay": 2825,
      "ĠChoose": 2826,
      "Ġpower": 2827,
      "ouble": 2828,
      "airs": 2829,
      "ever": 2830,
      "chn": 2831,
      "oods": 2832,
      "Ġnoise": 2833,
      "leg": 2834,
      "Ġconf": 2835,
      "Ġdeal": 2836,
      "fully": 2837,
      "view": 2838,
      "Ġhospital": 2839,
      "ĠNow": 2840,
      "abl": 2841,
      "aves": 2842,
      "Ġ193": 2843,
      "Ġpersonal": 2844,
      "Ġdriving": 2845,
      "Ġmid": 2846,
      "Ġeither": 2847,
      "ases": 2848,
      "ĠPr": 2849,
      "Ġcomb": 2850,
      "ĠAfric": 2851,
      "16": 2852,
      "Ā-Ā)Ā.Ā": 2853,
      "Ġpot": 2854,
      "ĠCar": 2855,
      "els": 2856,
      "ERR": 2857,
      "clock": 2858,
      "Ġrepresent": 2859,
      "Ġline": 2860,
      "Ġsuper": 2861,
      "aim": 2862,
      "ead": 2863,
      "ğ,Ā": 2864,
      "Ġcost": 2865,
      "Ġfre": 2866,
      "ĀÂ·ă": 2867,
      "Ġnav": 2868,
      "Ġothers": 2869,
      "Ġplaying": 2870,
      "ceed": 2871,
      "ĠIntern": 2872,
      "Ġmother": 2873,
      "Ġhalf": 2874,
      "enty": 2875,
      "ĠMan": 2876,
      "ĠEd": 2877,
      "Ġsurpr": 2878,
      "Getty": 2879,
      "ln": 2880,
      "room": 2881,
      "Ġknown": 2882,
      "ĠÂ«": 2883,
      "Ġairport": 2884,
      "Ġprogram": 2885,
      "ories": 2886,
      "ission": 2887,
      "Ā;ĀĔ": 2888,
      "Ġoo": 2889,
      "Ġvocabulary": 2890,
      "Ġsuff": 2891,
      "Ġparts": 2892,
      "Ġexamples": 2893,
      "Ġdesign": 2894,
      "Ġfootball": 2895,
      "Ġhor": 2896,
      "ĠBen": 2897,
      "Ġlooked": 2898,
      "ney": 2899,
      "Ġamount": 2900,
      "Ġswim": 2901,
      "].": 2902,
      "cs": 2903,
      "por": 2904,
      "ĠĀ-ĀÂ": 2905,
      "ĠWill": 2906,
      "ĠNot": 2907,
      "elt": 2908,
      "Ġwhole": 2909,
      "val": 2910,
      "ored": 2911,
      "Ġcarry": 2912,
      "NOT": 2913,
      "OO": 2914,
      "itc": 2915,
      "bers": 2916,
      "Ġaa": 2917,
      "ats": 2918,
      "ĠMon": 2919,
      "intermediate": 2920,
      ":/": 2921,
      "hy": 2922,
      "Ġrese": 2923,
      "ĠâĢĻ": 2924,
      "Ġsqu": 2925,
      "erly": 2926,
      "itor": 2927,
      "Ġ93": 2928,
      "ulation": 2929,
      "ĠYour": 2930,
      "ĀÂ±ă,Ā": 2931,
      "Ġemail": 2932,
      "Ġtrying": 2933,
      "ĠAustral": 2934,
      "oon": 2935,
      "oice": 2936,
      "ĠĀÂĶ": 2937,
      "Ġhung": 2938,
      "icy": 2939,
      "ĠRep": 2940,
      "ĠUniversity": 2941,
      "ĠJohn": 2942,
      "ĠEEE": 2943,
      "sth": 2944,
      "ables": 2945,
      "though": 2946,
      "ăÂ±ăÂ»": 2947,
      "time": 2948,
      "Ā.Ā[Ā": 2949,
      "Ġcal": 2950,
      "era": 2951,
      "Ġnat": 2952,
      "ĠApp": 2953,
      "Ġgarden": 2954,
      "Ġresp": 2955,
      "Ġcompl": 2956,
      "ague": 2957,
      "Ġexpensive": 2958,
      "Ġphrases": 2959,
      "lon": 2960,
      "đā": 2961,
      "Ġtakes": 2962,
      "ĠĀÂ¸": 2963,
      "Ġlim": 2964,
      "ĠOur": 2965,
      "ĠChrist": 2966,
      "rn": 2967,
      "Ġaff": 2968,
      "ĠOh": 2969,
      "ĠEm": 2970,
      "eech": 2971,
      "ection": 2972,
      "Ġhappy": 2973,
      "ĠGerman": 2974,
      "No": 2975,
      "Ĥ¬": 2976,
      "rain": 2977,
      "Ġfront": 2978,
      "Ġaccept": 2979,
      "gar": 2980,
      "Ā.Ā/Ā": 2981,
      "Ġexcept": 2982,
      "Ġalong": 2983,
      "vvn": 2984,
      "Ġsupport": 2985,
      "aÄ±": 2986,
      "fo": 2987,
      "Ġ65": 2988,
      "Ġstri": 2989,
      "Ġconvers": 2990,
      "iful": 2991,
      "ğÂ¸ă": 2992,
      "Ġuseful": 2993,
      "ĠChurch": 2994,
      "aff": 2995,
      "kt": 2996,
      "Ćă": 2997,
      "Ā-Ā]Ā": 2998,
      "ğÂ¸": 2999,
      "Ġvarious": 3000,
      "ior": 3001,
      "Ġess": 3002,
      "Ā-ā": 3003,
      "ĠWar": 3004,
      "Ġwanted": 3005,
      "sk": 3006,
      "Ġmot": 3007,
      "Ġmount": 3008,
      "Ġwouldn": 3009,
      "ĠAdvan": 3010,
      "Ġbelieve": 3011,
      "Ġcharacter": 3012,
      "ĠHelen": 3013,
      "ĠAdvanced": 3014,
      "rict": 3015,
      "ĠĀđ": 3016,
      "Ġcrit": 3017,
      "ĠIN": 3018,
      "ĠIl": 3019,
      "âĢĺ": 3020,
      "ĠJu": 3021,
      "ending": 3022,
      "Ġraining": 3023,
      "Ġeasy": 3024,
      "Ġexercise": 3025,
      "po": 3026,
      "wo": 3027,
      "ă)Ā,Ā": 3028,
      "Ġheavy": 3029,
      "Ġplural": 3030,
      "Ġrecog": 3031,
      "most": 3032,
      "Ġcust": 3033,
      "lla": 3034,
      "irst": 3035,
      "Ġchief": 3036,
      "Ġarg": 3037,
      "ERE": 3038,
      "ĠAfter": 3039,
      "22": 3040,
      "Ġeduc": 3041,
      "Ġid": 3042,
      "Ġheard": 3043,
      "Ġdog": 3044,
      "Ġdeb": 3045,
      "Ġabs": 3046,
      "ploy": 3047,
      "Ġreading": 3048,
      "ăÂ¯ăÂ¶ă": 3049,
      "ption": 3050,
      "Ġcolour": 3051,
      "Ġdiscuss": 3052,
      "OW": 3053,
      "ĠÃ¾": 3054,
      "Ā.Ā?Ā": 3055,
      "rees": 3056,
      "reme": 3057,
      "ĠDan": 3058,
      "iaison": 3059,
      "Ġblack": 3060,
      "ĠAmerica": 3061,
      "Ġquickly": 3062,
      "ĠSometimes": 3063,
      "cil": 3064,
      "ged": 3065,
      "Ā]Ā.Ā.Ā.Ā": 3066,
      "Ġ98": 3067,
      "ril": 3068,
      "eep": 3069,
      "ĠWell": 3070,
      "ĠArch": 3071,
      "Ġshopping": 3072,
      "Ġbrack": 3073,
      "Ġ75": 3074,
      "ush": 3075,
      "Ġthough": 3076,
      "apan": 3077,
      "Ġexplain": 3078,
      "Æı": 3079,
      "Ġ69": 3080,
      "irt": 3081,
      "Ġphys": 3082,
      "itting": 3083,
      "Ġbread": 3084,
      "Ġfinished": 3085,
      "ike": 3086,
      "ĠItaly": 3087,
      "lc": 3088,
      "ler": 3089,
      "set": 3090,
      "Ġcross": 3091,
      "Ġfa": 3092,
      "Ġ95": 3093,
      "ird": 3094,
      "ival": 3095,
      "Ġcolon": 3096,
      "ugh": 3097,
      "Ġbased": 3098,
      "countable": 3099,
      "ĠTry": 3100,
      "Ġhealth": 3101,
      "ĠGree": 3102,
      "Ġlonger": 3103,
      "Ġrecomm": 3104,
      "Ġcop": 3105,
      "ĠYork": 3106,
      "ift": 3107,
      "Ġperform": 3108,
      "Ġcentre": 3109,
      "fessor": 3110,
      "Ġhy": 3111,
      "iding": 3112,
      "Ġnevv": 3113,
      "Ġrelations": 3114,
      "olutely": 3115,
      "ration": 3116,
      "vent": 3117,
      "ÅŁ": 3118,
      "ă(Ā": 3119,
      "ering": 3120,
      "ĠHer": 3121,
      "Ġlives": 3122,
      "'.": 3123,
      "SE": 3124,
      "don": 3125,
      "eb": 3126,
      "ĠĀ%": 3127,
      "Ġpack": 3128,
      "Ġbill": 3129,
      "Ġlow": 3130,
      "ĠSue": 3131,
      "ots": 3132,
      "ĠObs": 3133,
      "Ġfruit": 3134,
      "Ġspace": 3135,
      "ĠComm": 3136,
      "atives": 3137,
      "ĠPo": 3138,
      "ĠPer": 3139,
      "unci": 3140,
      "7777": 3141,
      "Ġwonder": 3142,
      "Ġdinner": 3143,
      "Ġhungry": 3144,
      "Ġbrackets": 3145,
      "50": 3146,
      "haps": 3147,
      "va": 3148,
      "Ġpress": 3149,
      "llo": 3150,
      "Ġcoming": 3151,
      "Ġqual": 3152,
      "ĀÂĴĂÂĮĂ": 3153,
      "gen": 3154,
      "iStock": 3155,
      "Ġcir": 3156,
      "Ġwall": 3157,
      "Ġbor": 3158,
      "Ġmer": 3159,
      "ĠCam": 3160,
      "ĠBy": 3161,
      "ăÂ¯ăÂ¿ă": 3162,
      "Ġdef": 3163,
      "Ġquiet": 3164,
      "Ġallow": 3165,
      "ĠThanks": 3166,
      "Ġassist": 3167,
      "pa": 3168,
      "reg": 3169,
      "Ġdest": 3170,
      "Ġlunch": 3171,
      "Ġ82": 3172,
      "Ġstory": 3173,
      "Ġmeal": 3174,
      "ditional": 3175,
      "Ġposition": 3176,
      "ny": 3177,
      "Ā)Ā-Ā,Ā": 3178,
      "Ġsort": 3179,
      "Ġmag": 3180,
      "orld": 3181,
      "Ġll": 3182,
      "ĠMany": 3183,
      "Ġsud": 3184,
      "ude": 3185,
      "Ġgrow": 3186,
      "aterial": 3187,
      "Ġconsider": 3188,
      "Ġideas": 3189,
      "ĠÃĭ": 3190,
      "oe": 3191,
      "vve": 3192,
      "Ġtest": 3193,
      "inci": 3194,
      "Ġeng": 3195,
      "Ġglass": 3196,
      "dr": 3197,
      "ĠĀ;Ā": 3198,
      "Ā)Ā,Ā.Ā.Ā": 3199,
      "ĠĠĠĠĠ": 3200,
      "Ġself": 3201,
      "Ġnothing": 3202,
      "Ġupon": 3203,
      "ğÂ»ăÂ¿ă": 3204,
      "ăÂ´ă-Ā": 3205,
      "ĠĀ@ğÂ´ăÂ¿ă": 3206,
      "ME": 3207,
      "got": 3208,
      "many": 3209,
      "ule": 3210,
      "Ā>Ā)Ā.Ā]Ā": 3211,
      "Ā.Ā)Ā.Ā(Ā": 3212,
      "ley": 3213,
      "Ġonce": 3214,
      "ules": 3215,
      "Ġabove": 3216,
      "Ġspeech": 3217,
      "Ġservice": 3218,
      "Ġsudden": 3219,
      "ĠÃĭÃ¾": 3220,
      "ta": 3221,
      "Ġloc": 3222,
      "ĠII": 3223,
      "Ġvol": 3224,
      "obody": 3225,
      "ăÂ±ğ": 3226,
      "20": 3227,
      "jor": 3228,
      "men": 3229,
      "Ġbur": 3230,
      "Ġbought": 3231,
      "Ġfix": 3232,
      "Ġmiss": 3233,
      "ĠHis": 3234,
      "ortun": 3235,
      "Ġsoft": 3236,
      "Ġlooks": 3237,
      "Ā>Ā+Ā<Ā/Ā": 3238,
      "Ġmatter": 3239,
      "ĠIS": 3240,
      "Ġforget": 3241,
      "Ġdeg": 3242,
      "Ġbeautiful": 3243,
      "ION": 3244,
      "cn": 3245,
      "Ġsit": 3246,
      "Ġol": 3247,
      "lex": 3248,
      "eth": 3249,
      "ĠNote": 3250,
      "iety": 3251,
      "Ġtonight": 3252,
      "ps": 3253,
      "ĠOld": 3254,
      "Ġ90": 3255,
      "Ġforce": 3256,
      "Ġseem": 3257,
      "Ġaccount": 3258,
      "Ġwriting": 3259,
      "Ġsil": 3260,
      "Ġside": 3261,
      "ĠMed": 3262,
      "Ġ99": 3263,
      "ĠJane": 3264,
      "Ġspecific": 3265,
      "oke": 3266,
      "Âł": 3267,
      "ĠĀ+ā": 3268,
      "Ġ63": 3269,
      "ional": 3270,
      "Ġrequ": 3271,
      "cious": 3272,
      "iii": 3273,
      "Ġattack": 3274,
      "Ġmonths": 3275,
      "Ġestabl": 3276,
      "It": 3277,
      "fr": 3278,
      "Ġoe": 3279,
      "Ġview": 3280,
      "âĢĻ.": 3281,
      "ils": 3282,
      "urity": 3283,
      "ĠJapan": 3284,
      "ăÂ±ăÂ¯ă": 3285,
      "Ġinterested": 3286,
      "Ġbroken": 3287,
      "Ġfloor": 3288,
      "Il": 3289,
      "Ġexist": 3290,
      "ĠPhras": 3291,
      "nal": 3292,
      "Ġaffect": 3293,
      "Ġcause": 3294,
      "Ġden": 3295,
      "Ġ74": 3296,
      "ĠMost": 3297,
      "ĠRuss": 3298,
      "artment": 3299,
      "Ġinvol": 3300,
      "oken": 3301,
      "Ġstreet": 3302,
      "Ġtl": 3303,
      "Ġpen": 3304,
      "ĠSO": 3305,
      "ĠJames": 3306,
      "Ġnewspaper": 3307,
      "kes": 3308,
      "Ġwin": 3309,
      "Ġmaterial": 3310,
      "Āāā,Ā": 3311,
      "Ġwithin": 3312,
      "aced": 3313,
      "ived": 3314,
      "Ġappear": 3315,
      "bridge": 3316,
      "fri": 3317,
      "lined": 3318,
      "Ġtree": 3319,
      "Ġgame": 3320,
      "Ā}Āę": 3321,
      "Ġ97": 3322,
      "raz": 3323,
      "Ġplaces": 3324,
      "Ġmeanings": 3325,
      "Ġopinion": 3326,
      "cret": 3327,
      "ĠProfessor": 3328,
      "uri": 3329,
      "asant": 3330,
      "ott": 3331,
      "Ġ87": 3332,
      "ivil": 3333,
      "ĠCanada": 3334,
      "ĂÂĬĂÂĥĂ": 3335,
      "cing": 3336,
      "Ġtaking": 3337,
      "Ġaction": 3338,
      "Ġgreen": 3339,
      "ica": 3340,
      "ĠBr": 3341,
      "Ġones": 3342,
      "Ġconte": 3343,
      "Ġtele": 3344,
      "Ġtrave": 3345,
      "ught": 3346,
      "Ā[ĂÂĥĂ": 3347,
      "Ġcompletely": 3348,
      "Ġpiece": 3349,
      "iam": 3350,
      "Āăā": 3351,
      "Ġ{": 3352,
      "Ġtried": 3353,
      "Ġbat": 3354,
      "ÉĻr": 3355,
      ".).": 3356,
      "mm": 3357,
      "mark": 3358,
      "ĠĀ(": 3359,
      "Ġord": 3360,
      "istic": 3361,
      "Ġunit": 3362,
      "Ġ)Ā;Ā": 3363,
      "ips": 3364,
      "itted": 3365,
      "Ġfinish": 3366,
      "Ġach": 3367,
      "ining": 3368,
      "Ġfig": 3369,
      "ĀÂĮ": 3370,
      "Ġreason": 3371,
      "Ġdoctor": 3372,
      "Ġformed": 3373,
      "Ġground": 3374,
      "Ġlanguages": 3375,
      "Ġexercises": 3376,
      "Ġwhether": 3377,
      "IL": 3378,
      "Ġcam": 3379,
      "ery": 3380,
      "Ġdam": 3381,
      "ĠChem": 3382,
      "ĠMake": 3383,
      "ĠJack": 3384,
      "anger": 3385,
      "Ġposs": 3386,
      "ropri": 3387,
      "Ġbirth": 3388,
      "Ġangry": 3389,
      "ĠĀ!ğ": 3390,
      "Ġrecogn": 3391,
      "kn": 3392,
      "Ġfather": 3393,
      "Ġ76": 3394,
      "Ġ89": 3395,
      "Ġteam": 3396,
      "Ġlots": 3397,
      "Ġbusy": 3398,
      "Ġdecision": 3399,
      "Ġsituations": 3400,
      "ba": 3401,
      "Ġment": 3402,
      "Ġ68": 3403,
      "Ġplane": 3404,
      "Ġlevel": 3405,
      "Ā.Ā)Ā:ĀĔ": 3406,
      "Ġindust": 3407,
      "Ġriver": 3408,
      "pre": 3409,
      "Ġage": 3410,
      "Ġmis": 3411,
      "Ġmine": 3412,
      "Ġmeas": 3413,
      "Ġsepar": 3414,
      "ĠĀ:Ā": 3415,
      "Ġport": 3416,
      "Ġfish": 3417,
      "omen": 3418,
      "ĠUS": 3419,
      "Ġarm": 3420,
      "Ġflight": 3421,
      "ĠĀđğ": 3422,
      "bed": 3423,
      "ko": 3424,
      "Ġsense": 3425,
      "Ġnational": 3426,
      "Ġge": 3427,
      "Ġ72": 3428,
      "Ġ86": 3429,
      "Ġ92": 3430,
      "Ġrecord": 3431,
      "Ġinterview": 3432,
      "Ġcreat": 3433,
      "Ġfill": 3434,
      "Ġdram": 3435,
      "Ġho": 3436,
      "ĠSu": 3437,
      "ĠHouse": 3438,
      "Ġtechn": 3439,
      "Ġspend": 3440,
      "Ġassoci": 3441,
      "ĠCollege": 3442,
      "Ġpicture": 3443,
      "ĠParis": 3444,
      "Ġchanges": 3445,
      "ĠĀÂĶă": 3446,
      "ched": 3447,
      "sy": 3448,
      "Ġbab": 3449,
      "atin": 3450,
      "ĠPol": 3451,
      "ĠâĤ¬": 3452,
      "ugg": 3453,
      "Ġbird": 3454,
      "ĠIntermediate": 3455,
      "ā-Ā": 3456,
      "Ġsays": 3457,
      "Ġpick": 3458,
      "Ġfur": 3459,
      "Ġlab": 3460,
      "hern": 3461,
      "Ġwhite": 3462,
      "ocol": 3463,
      "Ġbecom": 3464,
      "lands": 3465,
      "Ġtour": 3466,
      "atur": 3467,
      "Ġtho": 3468,
      "Ġwhy": 3469,
      "Ġdel": 3470,
      "Ġstudent": 3471,
      "Ġregular": 3472,
      "fa": 3473,
      "nce": 3474,
      "put": 3475,
      "Ġ]Ā.Ā": 3476,
      "Ġaut": 3477,
      "ively": 3478,
      "ğÂ¶": 3479,
      "Ā>Ā-Ā<Ā/Ā": 3480,
      "Ġpriv": 3481,
      "ĠAfrica": 3482,
      "bit": 3483,
      "Ăă": 3484,
      "ğ-Ā": 3485,
      "itch": 3486,
      "ĠSw": 3487,
      "ĠLaw": 3488,
      "ĠGen": 3489,
      "ĠGermany": 3490,
      "tl": 3491,
      "Āđā": 3492,
      "ones": 3493,
      "Ġbase": 3494,
      "Ā>Ā.Ā=Ā": 3495,
      "ĠDictionary": 3496,
      "Ġvvork": 3497,
      "ĠCompare": 3498,
      "25": 3499,
      "Ā.Ā,Ā.Ā.Ā": 3500,
      "ĠĀ[ĀĘ": 3501,
      "Ġcard": 3502,
      "cience": 3503,
      "ĀÂ°Ā,Ā": 3504,
      "ization": 3505,
      "Ġrecently": 3506,
      "ca": 3507,
      "oid": 3508,
      "Ā.ĀĘ": 3509,
      "ances": 3510,
      "Ġlived": 3511,
      "iect": 3512,
      "ğÂ±ă": 3513,
      "ĠQu": 3514,
      "Ġcommunic": 3515,
      "itchen": 3516,
      "ĠJuly": 3517,
      "fast": 3518,
      "lr": 3519,
      "Ġsens": 3520,
      "Ā!Ā,Ā": 3521,
      "Ġheld": 3522,
      "Ġshoes": 3523,
      "ÉĻs": 3524,
      "ĠÂ»": 3525,
      "Ġunderlined": 3526,
      "unciation": 3527,
      "ges": 3528,
      "hand": 3529,
      "rew": 3530,
      "Ġfurn": 3531,
      "Ġna": 3532,
      "ăÂ¿ă-Ā,Ā": 3533,
      "rodu": 3534,
      "Ġju": 3535,
      "Ġcannot": 3536,
      "ăÂ¿ăÂ»ăÂ¿ă": 3537,
      "Ġcentury": 3538,
      "Ġstopped": 3539,
      "Ġproduct": 3540,
      "Ġtemper": 3541,
      "Ā.Ā.Āę": 3542,
      "Ġtot": 3543,
      "Ġgold": 3544,
      "Ġ81": 3545,
      "Ġ94": 3546,
      "Ġforward": 3547,
      "Ġuser": 3548,
      "ĀÂĥĂ[Ă": 3549,
      "Ġcontact": 3550,
      "ĠUNIT": 3551,
      "')": 3552,
      "cu": 3553,
      "Ġband": 3554,
      "ĠSte": 3555,
      "Ġ64": 3556,
      "ĠJan": 3557,
      "Ġkitchen": 3558,
      "Ġneeds": 3559,
      "ĠSpan": 3560,
      "ledge": 3561,
      "Ġcurrent": 3562,
      "Ā)ĀÂĬĂ": 3563,
      "Ġanimals": 3564,
      "Ġcontext": 3565,
      "mi": 3566,
      "iting": 3567,
      "ĠCong": 3568,
      "ĠWas": 3569,
      "ĠMr": 3570,
      "Ġviol": 3571,
      "rible": 3572,
      "ĠNorth": 3573,
      "Ġclaim": 3574,
      "Ġappropri": 3575,
      "Ġfirm": 3576,
      "Ġfell": 3577,
      "Ġveget": 3578,
      "Ġpositive": 3579,
      "Ġ{Ā": 3580,
      "Ġball": 3581,
      "Ġfit": 3582,
      "Ġ77": 3583,
      "Ġ61": 3584,
      "Ġ85": 3585,
      "Ġcond": 3586,
      "Ġweekend": 3587,
      "ăÂ¶ğ": 3588,
      "ING": 3589,
      "Ġsuitable": 3590,
      "ĀÂĮĂÂĥĂ": 3591,
      "Ġhig": 3592,
      "Ġlar": 3593,
      "Ġ62": 3594,
      "rab": 3595,
      "Ġoutside": 3596,
      "Ġtea": 3597,
      "anged": 3598,
      "Ġprinci": 3599,
      "Ġmanage": 3600,
      "Ġmiles": 3601,
      "Ġexpected": 3602,
      "ĠPhrasal": 3603,
      "XX": 3604,
      "rate": 3605,
      "ĠÑ": 3606,
      "ales": 3607,
      "Ā}Ā-Ā": 3608,
      "ĠSy": 3609,
      "ĠSpe": 3610,
      "rap": 3611,
      "aining": 3612,
      "Ġpeace": 3613,
      "Ġseems": 3614,
      "Ġfamous": 3615,
      "Ġarrive": 3616,
      "Ġcrime": 3617,
      "Ġcaused": 3618,
      "lin": 3619,
      "ov": 3620,
      "Ġ........": 3621,
      "ĠCons": 3622,
      "ĠOther": 3623,
      "Ġjud": 3624,
      "Ġsuc": 3625,
      "Ġsecret": 3626,
      "ransp": 3627,
      "Ā-Ā)Ā;Ā": 3628,
      "Ġtick": 3629,
      "ency": 3630,
      "ĠIr": 3631,
      "ters": 3632,
      "Ġcomple": 3633,
      "Ġalone": 3634,
      "Ġhold": 3635,
      "Ġresearch": 3636,
      "';": 3637,
      "Ġpra": 3638,
      "ana": 3639,
      "lement": 3640,
      "Ġadm": 3641,
      "Ġbrought": 3642,
      "Ġtrade": 3643,
      "Ġboss": 3644,
      "Ġacross": 3645,
      "Ġtreaty": 3646,
      "Ġconversation": 3647,
      "],": 3648,
      "bing": 3649,
      "off": 3650,
      "ergy": 3651,
      "ĠSam": 3652,
      "ĠAdditional": 3653,
      "Ġpaid": 3654,
      "Ġtaxi": 3655,
      "Ā)ĀĔ": 3656,
      "oub": 3657,
      "arp": 3658,
      "Ġreturn": 3659,
      "ses": 3660,
      "Ġ............": 3661,
      "isp": 3662,
      "omin": 3663,
      "ĠHist": 3664,
      "endix": 3665,
      "ĂÂ¸ă[Ă": 3666,
      "formal": 3667,
      "Ġslow": 3668,
      "ĠConst": 3669,
      "Ġmajor": 3670,
      "Ġmiddle": 3671,
      "Ġaaa": 3672,
      "Ġboy": 3673,
      "Ġfield": 3674,
      "ential": 3675,
      "Ġil": 3676,
      "Ġcomes": 3677,
      "Ġlikely": 3678,
      "Ġappro": 3679,
      "Ġdecide": 3680,
      "Ġready": 3681,
      "ĠVVe": 3682,
      "Ġspecif": 3683,
      "Ġpolitical": 3684,
      "Ġfavour": 3685,
      "Ġrecommend": 3686,
      "--": 3687,
      "Ġaw": 3688,
      "Ġsold": 3689,
      "Ġdu": 3690,
      "aries": 3691,
      "ĠAug": 3692,
      "âĢ¢": 3693,
      "ĠMark": 3694,
      "ilities": 3695,
      "ĠJune": 3696,
      "iff": 3697,
      "Ġblue": 3698,
      "See": 3699,
      "bi": 3700,
      "some": 3701,
      "ă;Ā": 3702,
      "ĠĀ(Ā{Ā": 3703,
      "erve": 3704,
      "Ġborrow": 3705,
      "isl": 3706,
      "Ġnon": 3707,
      "Ġrefer": 3708,
      "Ġstruct": 3709,
      "Ġdraw": 3710,
      "Ġsingle": 3711,
      "Ġbehav": 3712,
      "ĠPeople": 3713,
      "Ġsuddenly": 3714,
      "ED": 3715,
      "da": 3716,
      "ĠĀę": 3717,
      "Ā-Ā:ĀĔ": 3718,
      "Ġfarm": 3719,
      "ingua": 3720,
      "Ġep": 3721,
      "Ġ88": 3722,
      "road": 3723,
      "oph": 3724,
      "Ġdecl": 3725,
      "ĠâĹĭ": 3726,
      "Ġsocial": 3727,
      "Ā>Ā+Ā": 3728,
      "head": 3729,
      "ĠTO": 3730,
      "ĠTHE": 3731,
      "Ġ79": 3732,
      "ĠMarch": 3733,
      "Ġvill": 3734,
      "Ġredu": 3735,
      "Ġsaying": 3736,
      "Ġimprove": 3737,
      "Ġpassed": 3738,
      "Ġindic": 3739,
      "Ġinclude": 3740,
      "ĠGeor": 3741,
      "bar": 3742,
      "ek": 3743,
      "which": 3744,
      "Ġcf": 3745,
      "Ġfine": 3746,
      "olic": 3747,
      "change": 3748,
      "istry": 3749,
      "ocus": 3750,
      "Ġalmost": 3751,
      "ume": 3752,
      "nnn": 3753,
      "Ġanyone": 3754,
      "Ġ190": 3755,
      "ocked": 3756,
      "Ġaccess": 3757,
      "Ġevent": 3758,
      "ĠAustralia": 3759,
      "lor": 3760,
      "Ã¹": 3761,
      "Ā+ā:Ā": 3762,
      "Ġmemb": 3763,
      "Ġsell": 3764,
      "Ġdisapp": 3765,
      "Ġemot": 3766,
      "Ġpopulation": 3767,
      "Ġcapital": 3768,
      "Ġtrip": 3769,
      "Ġletters": 3770,
      "Ġconnected": 3771,
      "ĠApril": 3772,
      "back": 3773,
      "mn": 3774,
      "inet": 3775,
      "Ġtow": 3776,
      "Ġofthe": 3777,
      "ĠAc": 3778,
      "oto": 3779,
      "ĠER": 3780,
      "Ġumb": 3781,
      "Ġweight": 3782,
      "ĠJust": 3783,
      "apers": 3784,
      "Ġhasn": 3785,
      "Ġ101": 3786,
      "gypt": 3787,
      "Ġdescribe": 3788,
      "Lingua": 3789,
      "bour": 3790,
      "Ġfelt": 3791,
      "ĂÂĥĂ[Ă": 3792,
      "Ġgets": 3793,
      "Ġeveryone": 3794,
      "Ġconsist": 3795,
      "Ġbeach": 3796,
      "Ġearth": 3797,
      "ĠIndia": 3798,
      "Ġeducation": 3799,
      "Ġappropriate": 3800,
      "UN": 3801,
      "look": 3802,
      "pose": 3803,
      "sc": 3804,
      "ă]Ā,Ā": 3805,
      "ĠÄ±": 3806,
      "ĠĀ-ĀÂ»": 3807,
      "inary": 3808,
      "Ġfly": 3809,
      "Ā!Ā)Ā": 3810,
      "Ġii": 3811,
      "Ġ96": 3812,
      "igital": 3813,
      "ĠĀÂ±ă]Ā.Ā": 3814,
      "under": 3815,
      "Ġclim": 3816,
      "Ġending": 3817,
      "night": 3818,
      "sa": 3819,
      "tic": 3820,
      "ĠĀ+": 3821,
      "ĠĀ)Ā=Ā": 3822,
      "Ġwed": 3823,
      "ĀÂĬ": 3824,
      "ĠWith": 3825,
      "Ġ84": 3826,
      "ĠHar": 3827,
      "ăÂ»ă-ĀÂ¿ă": 3828,
      "unt": 3829,
      "Ġshare": 3830,
      "Ġvvho": 3831,
      "Ġhadn": 3832,
      "ĠĀÂ»ăÂ¯": 3833,
      "Ġweeks": 3834,
      "Ġinstead": 3835,
      "Ġpattern": 3836,
      "Ġident": 3837,
      "mo": 3838,
      "Ā)Ā)Ā": 3839,
      "Ġsad": 3840,
      "Ġborn": 3841,
      "Ġdress": 3842,
      "Ġdanger": 3843,
      "ĠSyn": 3844,
      "Ġrob": 3845,
      "Ġthin": 3846,
      "epend": 3847,
      "Ġmembers": 3848,
      "EL": 3849,
      "did": 3850,
      "ius": 3851,
      "ĀÂ±": 3852,
      "Ġworth": 3853,
      "acy": 3854,
      "Ġdeath": 3855,
      "Ġuncountable": 3856,
      "Ġsomewhere": 3857,
      "Ġthinking": 3858,
      "ğÂ»ăÂ·ă": 3859,
      "Ġaccord": 3860,
      "Ġbroke": 3861,
      "Ġextreme": 3862,
      "Ġprogress": 3863,
      "ĀÂ¯ăÂ±ă": 3864,
      "Ġnatural": 3865,
      "US": 3866,
      "iy": 3867,
      "Ġsend": 3868,
      "Ġ67": 3869,
      "ĠNational": 3870,
      "pped": 3871,
      "Ġ189": 3872,
      "âĢĶâĢĶâĢĶâĢĶ": 3873,
      "Ġmodern": 3874,
      "Ġfunction": 3875,
      "ĠCambridge": 3876,
      "sl": 3877,
      "vious": 3878,
      "ĠĀ`": 3879,
      "ico": 3880,
      "eter": 3881,
      "oted": 3882,
      "Ġrat": 3883,
      "ĠOct": 3884,
      "ĠEgypt": 3885,
      "ĠLu": 3886,
      "key": 3887,
      "ERAT": 3888,
      "they": 3889,
      "Ġbuilt": 3890,
      "selves": 3891,
      "Ġ...........................": 3892,
      "Ġlocal": 3893,
      "Ā-ĀÂ¿ă": 3894,
      "Ā]Ā,Ā.Ā.Ā": 3895,
      "ouch": 3896,
      "Ġ78": 3897,
      "ĠEN": 3898,
      "Ġstaff": 3899,
      "ĠVar": 3900,
      "lied": 3901,
      "Ġ186": 3902,
      "Ġpopular": 3903,
      "Ġprotect": 3904,
      "ĠAppendix": 3905,
      "Ā)Ā<Ā/Ā": 3906,
      "Ġmess": 3907,
      "ĠTur": 3908,
      "ĠAI": 3909,
      "Ġconv": 3910,
      "Ġleaves": 3911,
      "nnnnnnnn": 3912,
      "Ġbreakfast": 3913,
      "ĠLLMs": 3914,
      "Ġdeter": 3915,
      "Ġsucceed": 3916,
      "iple": 3917,
      "ÂĬĂ": 3918,
      "ĥĂÂĮĂ": 3919,
      "ĠĀ-": 3920,
      "Ġoil": 3921,
      "ites": 3922,
      "Ġlower": 3923,
      "Ġnature": 3924,
      "......": 3925,
      "ĠMex": 3926,
      "Ġhence": 3927,
      "Ġneigh": 3928,
      "astic": 3929,
      "Ġworked": 3930,
      "Ġflowers": 3931,
      "ăÂ±ăÂ»ăÂ¿ă": 3932,
      "cons": 3933,
      "Ġsyn": 3934,
      "Ġwarm": 3935,
      "Ā[ĂÂ¸ă": 3936,
      "Ġarticle": 3937,
      "Ġbaby": 3938,
      "face": 3939,
      "Ġāā": 3940,
      "ĠĀ)Ā(Ā": 3941,
      "Ġson": 3942,
      "Ġ83": 3943,
      "Ġstra": 3944,
      "Ġcondition": 3945,
      "Ġwhose": 3946,
      "Ġsurprised": 3947,
      "Ġrespons": 3948,
      "fon": 3949,
      "gl": 3950,
      "pi": 3951,
      "inc": 3952,
      "Ġcred": 3953,
      "Ġluck": 3954,
      "Ġ200": 3955,
      "ĠLI": 3956,
      "Ġheart": 3957,
      "ĠItal": 3958,
      "ivid": 3959,
      "Ġprison": 3960,
      "Ġterm": 3961,
      "Ġbroad": 3962,
      "Ġfacebook": 3963,
      "ĠGreek": 3964,
      "40": 3965,
      "hi": 3966,
      "kr": 3967,
      "rase": 3968,
      "yle": 3969,
      "Ġsat": 3970,
      "Ġswe": 3971,
      "ĠSl": 3972,
      "ĠSm": 3973,
      "ented": 3974,
      "Ġring": 3975,
      "ria": 3976,
      "Ġchocol": 3977,
      "Ġplant": 3978,
      "Ġquant": 3979,
      "ĠChar": 3980,
      "Ġwants": 3981,
      "Ġtrad": 3982,
      "Ġreport": 3983,
      "Ġpassive": 3984,
      "Ġwalking": 3985,
      "Ġsecurity": 3986,
      "ĠFriday": 3987,
      "Ġcustom": 3988,
      "Or": 3989,
      "Yes": 3990,
      "ellow": 3991,
      "Ġwide": 3992,
      "Ġpet": 3993,
      "Ġmat": 3994,
      "ĠRob": 3995,
      "ĠGood": 3996,
      "ăÂ»ăÂ»ăÂ¿ă": 3997,
      "ă-ĀÂ": 3998,
      "Ġmyself": 3999,
      "Ġbecame": 4000,
      "Ġguard": 4001,
      "Ġdetail": 4002,
      "Ġcritic": 4003,
      "Ġumbre": 4004,
      "ÂĬĂ)Ā": 4005,
      "somet": 4006,
      "Ġā": 4007,
      "Ā>Ā.Ā.Ā": 4008,
      "Ġcamp": 4009,
      "ĠĀÂĮĂ": 4010,
      "Ġlose": 4011,
      "Ġloud": 4012,
      "ĠSer": 4013,
      "ĠSen": 4014,
      "ĠBraz": 4015,
      "ĠDav": 4016,
      "Ġanybody": 4017,
      "Ġbasic": 4018,
      "ĠAnna": 4019,
      "LinguaLI": 4020,
      "Ġsour": 4021,
      "Ġcivil": 4022,
      "Ġhit": 4023,
      "Ġnorth": 4024,
      "ĠAmy": 4025,
      "ĠPri": 4026,
      "roy": 4027,
      "ĠNO": 4028,
      "ability": 4029,
      "Ġarr": 4030,
      "Ġcolor": 4031,
      "Ġdifference": 4032,
      "Ġsubst": 4033,
      "ĠSpain": 4034,
      "ĠShall": 4035,
      "Ġincluding": 4036,
      "LinguaLIB": 4037,
      "dd": 4038,
      "king": 4039,
      "ĠĀ-Ā+ā": 4040,
      "rel": 4041,
      "Ġfi": 4042,
      "itect": 4043,
      "Ġlat": 4044,
      "ĠIll": 4045,
      "Ġjack": 4046,
      "ĠKing": 4047,
      "Ġprep": 4048,
      "Ġgrad": 4049,
      "Ġcollect": 4050,
      "Ġapply": 4051,
      "Ġcontinue": 4052,
      "Ġexpression": 4053,
      "Ġgroups": 4054,
      "ăÂ·ă,Ā": 4055,
      "ĠĀ(ĀÂ´ă": 4056,
      "friend": 4057,
      "but": 4058,
      "ned": 4059,
      "spe": 4060,
      "Ġobs": 4061,
      "isc": 4062,
      "ids": 4063,
      "ĠNE": 4064,
      "irty": 4065,
      "Ġadop": 4066,
      "apt": 4067,
      "ems": 4068,
      "Ġarrange": 4069,
      "Ġsports": 4070,
      "Ġgrand": 4071,
      "Ġconstitution": 4072,
      "Ġforeign": 4073,
      "Ġradio": 4074,
      "ror": 4075,
      "su": 4076,
      "Ġtit": 4077,
      "ened": 4078,
      "ĠCould": 4079,
      "olution": 4080,
      "Ā+ā-Ā": 4081,
      "Ġstat": 4082,
      "Ġ.Ā.Ā,Ā": 4083,
      "Ġcharge": 4084,
      "Ġprint": 4085,
      "Ġtrouble": 4086,
      "ĠMonday": 4087,
      "ĠSpanish": 4088,
      "bu": 4089,
      "come": 4090,
      "si": 4091,
      "ĀĂă": 4092,
      "Ġhands": 4093,
      "ĠMatch": 4094,
      "iling": 4095,
      "Ġdoc": 4096,
      "Ġspoken": 4097,
      "ublic": 4098,
      "Ġrespect": 4099,
      "Ġinvest": 4100,
      "Ġstaying": 4101,
      "ENT": 4102,
      "Ġâĸ¡": 4103,
      "Ġpronoun": 4104,
      "Liaison": 4105,
      "iture": 4106,
      "Ġeight": 4107,
      "āāă": 4108,
      "ĠAng": 4109,
      "ĠBl": 4110,
      "ouncil": 4111,
      "Ġbrick": 4112,
      "ĠĀÂ»ăÂ±ă": 4113,
      "Ġcourt": 4114,
      "Ġturned": 4115,
      "Ġhuman": 4116,
      "Ġnormally": 4117,
      "Ġactivities": 4118,
      "Ġrelationship": 4119,
      "ğÂ¶ă": 4120,
      "kl": 4121,
      "Ā>Ā.Ā)Ā": 4122,
      "ream": 4123,
      "Ġban": 4124,
      "Ġeating": 4125,
      "âĢĻ,": 4126,
      "Ă(ĀÂĬĂ)Ā": 4127,
      "ama": 4128,
      "Ġpropos": 4129,
      "aker": 4130,
      "liament": 4131,
      "Ā'Ā)Ā": 4132,
      "Ġspent": 4133,
      "Ġpreced": 4134,
      "ruction": 4135,
      "Ġappoint": 4136,
      "ĠĀÂ´ăÂŃă": 4137,
      "Ġhardly": 4138,
      "ĠBrazil": 4139,
      "24": 4140,
      "?Āę": 4141,
      "fÉĻn": 4142,
      "list": 4143,
      "now": 4144,
      "vver": 4145,
      "Ġwood": 4146,
      "Ġpers": 4147,
      "Ġinfl": 4148,
      "usb": 4149,
      "ĠLatin": 4150,
      "Ġprepar": 4151,
      "Ġcollege": 4152,
      "Ġchest": 4153,
      "Ġattract": 4154,
      "ĠIndian": 4155,
      "Ġ!Ā": 4156,
      ".-": 4157,
      "rd": 4158,
      "vision": 4159,
      "Ā.Ā.Ā'Ā": 4160,
      "Ġlog": 4161,
      "Ā}Ā)Ā": 4162,
      "ĠST": 4163,
      "Ġste": 4164,
      "urs": 4165,
      "Ġusual": 4166,
      "aged": 4167,
      "Ġenc": 4168,
      "Ġformerly": 4169,
      "Ġagreement": 4170,
      "ĠVerbs": 4171,
      "Ġswimming": 4172,
      "Ġsquare": 4173,
      "Ġperformance": 4174,
      "Ġumbrella": 4175,
      "ga": 4176,
      "ĠĀ)Ā.Ā]Ā": 4177,
      "Ā-Ā'Ā": 4178,
      "ini": 4179,
      "ination": 4180,
      "Ġsitting": 4181,
      "Ġnerv": 4182,
      "ĠEA": 4183,
      "ĠBo": 4184,
      "ĠDec": 4185,
      "ĠFirst": 4186,
      "Ġexact": 4187,
      "vvay": 4188,
      "Ġphon": 4189,
      "Ġimmediate": 4190,
      "Ġhelpful": 4191,
      "Ġcarefully": 4192,
      "ĠExerc": 4193,
      "Ġsummer": 4194,
      "45": 4195,
      "An": 4196,
      "aren": 4197,
      "Ġonline": 4198,
      "oos": 4199,
      "ops": 4200,
      "Ġship": 4201,
      "ÉĻnt": 4202,
      "Ġdev": 4203,
      "Ġarc": 4204,
      "Ġ187": 4205,
      "Ġperhaps": 4206,
      "rupt": 4207,
      "Ġearli": 4208,
      "Ġwatching": 4209,
      "Ġbike": 4210,
      "Ġdegree": 4211,
      ".:": 4212,
      "cer": 4213,
      "cul": 4214,
      "ham": 4215,
      "âĸ": 4216,
      "Ġtight": 4217,
      "inct": 4218,
      "ancy": 4219,
      "isk": 4220,
      "Ā.Ā.Ā.Āę": 4221,
      "Ġgaps": 4222,
      "ĠChe": 4223,
      "ĠHi": 4224,
      "iron": 4225,
      "ĠRoman": 4226,
      "swer": 4227,
      "ĠRead": 4228,
      "Ġvalue": 4229,
      "tempt": 4230,
      "Ġhistory": 4231,
      "iver": 4232,
      "mes": 4233,
      "ĠĀ&": 4234,
      "Ġaim": 4235,
      "Ā]ĀĔ": 4236,
      "Ġcatch": 4237,
      "ĠMo": 4238,
      "Ġves": 4239,
      "ĠâĢĿ": 4240,
      "ăÂ»ăÂ¯ă": 4241,
      "Ġlie": 4242,
      "aph": 4243,
      "place": 4244,
      "Ġcoast": 4245,
      "Ġcars": 4246,
      "Ġmilitary": 4247,
      "Ġsnow": 4248,
      "ĠMinister": 4249,
      "Ġnaval": 4250,
      "Ġnervous": 4251,
      "âĸł": 4252,
      "hib": 4253,
      "Ġeld": 4254,
      "Ā[Ăăă": 4255,
      "ĠWorld": 4256,
      "ĠBel": 4257,
      "ĠDes": 4258,
      "ĠUpper": 4259,
      "Ġaren": 4260,
      "Ġvvord": 4261,
      "Ġsport": 4262,
      "Ä±d": 4263,
      "Ä±s": 4264,
      "Ġcareful": 4265,
      "Ġvvere": 4266,
      "board": 4267,
      "Ġfrequ": 4268,
      "31": 4269,
      "RI": 4270,
      "cap": 4271,
      "ml": 4272,
      "over": 4273,
      "Ġom": 4274,
      "Ġbal": 4275,
      "Ġliter": 4276,
      "ĠAS": 4277,
      "Ġthrow": 4278,
      "ĠPresent": 4279,
      "idence": 4280,
      "Ġstar": 4281,
      "ĠGu": 4282,
      "Ġking": 4283,
      "ERRR": 4284,
      "Ġcompar": 4285,
      "Ġspeaking": 4286,
      "ittee": 4287,
      "Ġpubl": 4288,
      "Ġpronunciation": 4289,
      "ĠDavid": 4290,
      "RA": 4291,
      "Ġsand": 4292,
      "Ġhat": 4293,
      "ara": 4294,
      "ĠThen": 4295,
      "Ġsugar": 4296,
      "Ġ->": 4297,
      "Ġvvhich": 4298,
      "ERET": 4299,
      "ĠUniv": 4300,
      "Ġphrase": 4301,
      "ğÂ»ăÂ±ă": 4302,
      "Ġsyll": 4303,
      "Ġfeet": 4304,
      "Ġconcert": 4305,
      "Ġwearing": 4306,
      "Ġargument": 4307,
      "ĠGeorge": 4308,
      "ole": 4309,
      "Ġut": 4310,
      "Ġfac": 4311,
      "ĠEn": 4312,
      "Ġdem": 4313,
      "Ġunless": 4314,
      "Ġgram": 4315,
      "ăÂ¸ăÂ·ă": 4316,
      "Ġnumbers": 4317,
      "Ġregard": 4318,
      "Ġmoving": 4319,
      "ĠLeague": 4320,
      "ĠChris": 4321,
      "Ġincrease": 4322,
      "Ġwonderful": 4323,
      "Ex": 4324,
      "^^": 4325,
      "ef": 4326,
      "lf": 4327,
      "Ġtall": 4328,
      "atre": 4329,
      "ĠSatur": 4330,
      "ĠCal": 4331,
      "ample": 4332,
      "ĠStud": 4333,
      "ăÂ±ăÂ¸ăÂ±ă": 4334,
      "Ġcolle": 4335,
      "Ġbelong": 4336,
      "ĠAlso": 4337,
      "ĠĀÂ´ăÂ¯ă": 4338,
      "Ġtaste": 4339,
      "lementary": 4340,
      "Ġchocolate": 4341,
      "33": 4342,
      "iir": 4343,
      "za": 4344,
      "Ă\"": 4345,
      "ĠGram": 4346,
      "Ġteach": 4347,
      "Ġpref": 4348,
      "Ġaddress": 4349,
      "ughter": 4350,
      "Ġfixed": 4351,
      "kin": 4352,
      "rary": 4353,
      "Ă\\Ă": 4354,
      "Ġscient": 4355,
      "ĠAlex": 4356,
      "Ġgoods": 4357,
      "ĠSir": 4358,
      "ĠCent": 4359,
      "Ġ91": 4360,
      "ify": 4361,
      "ained": 4362,
      "ĠIts": 4363,
      "Ġtrust": 4364,
      "Ġplayed": 4365,
      "Ġfollowed": 4366,
      "Ġgiving": 4367,
      "ĠColl": 4368,
      "Ā)ĀÂĥĂ": 4369,
      "ĠInternational": 4370,
      "Ġmotor": 4371,
      "ĠĀ(ĀÂ´ă)Ā": 4372,
      "-.": 4373,
      "LE": 4374,
      "cd": 4375,
      "met": 4376,
      "Ā/": 4377,
      "Ġsus": 4378,
      "Ġways": 4379,
      "Ġmatch": 4380,
      "Ġdate": 4381,
      "ached": 4382,
      "ession": 4383,
      "Ġprof": 4384,
      "Ġleaving": 4385,
      "pleasant": 4386,
      "ĠKe": 4387,
      "ĠChina": 4388,
      "Ġexams": 4389,
      "ĠDoes": 4390,
      "Ġseries": 4391,
      "ĠVVhat": 4392,
      "Ġjourney": 4393,
      "Ġnormal": 4394,
      "ĠGovern": 4395,
      "Ġcommunication": 4396,
      "Ġpatterns": 4397,
      "!Ā": 4398,
      "Ġtar": 4399,
      "Ġtvv": 4400,
      "Ġtransp": 4401,
      "Ġfair": 4402,
      "itation": 4403,
      "Ġans": 4404,
      "lly": 4405,
      "ĠCath": 4406,
      "ĠHo": 4407,
      "Ġstren": 4408,
      "Ġchair": 4409,
      "ĠUnion": 4410,
      "Ġprice": 4411,
      "Ġperm": 4412,
      "Ġolder": 4413,
      "Ġfinal": 4414,
      "Ġschools": 4415,
      "Ġfriendship": 4416,
      "Ġevents": 4417,
      "Ġchemical": 4418,
      "Ġneighbour": 4419,
      "OS": 4420,
      "cast": 4421,
      "fact": 4422,
      "happ": 4423,
      "iis": 4424,
      ".Ā.Ā": 4425,
      "ino": 4426,
      "isions": 4427,
      "Ā,Ā.Ā.Ā(Ā": 4428,
      "Ġdut": 4429,
      "Ġdial": 4430,
      "estern": 4431,
      "Ġgives": 4432,
      "eee": 4433,
      "Ġwhom": 4434,
      "umb": 4435,
      "rences": 4436,
      "Ġsafe": 4437,
      "Ġdriver": 4438,
      "Ġbadly": 4439,
      "Ā.Ā]Ā.Ā.Ā.Ā": 4440,
      "Ġtypes": 4441,
      "Ġmistake": 4442,
      "Ġeconomic": 4443,
      "Ġcirc": 4444,
      "Ġbecomes": 4445,
      "Is": 4446,
      "iil": 4447,
      "ym": 4448,
      "Ġtin": 4449,
      "Ġsem": 4450,
      "Ā]Ā?Ā": 4451,
      "Ġcou": 4452,
      "Ġea": 4453,
      "Ġhous": 4454,
      "Ġnet": 4455,
      "Ġrub": 4456,
      "ăÂ»ăÂŃă": 4457,
      "Ġ06": 4458,
      "duct": 4459,
      "Ġbehind": 4460,
      "Ġmistakes": 4461,
      "Ġboring": 4462,
      "Ġmagaz": 4463,
      "Ġfurther": 4464,
      "ĠĀÂ»ăÂ¯ăÂ¸ăÂ¿ă": 4465,
      "UT": 4466,
      "VE": 4467,
      "ging": 4468,
      "has": 4469,
      "rint": 4470,
      "inds": 4471,
      "Ġfight": 4472,
      "Ā,Ā.Ā.Ā[Ā": 4473,
      "omb": 4474,
      "icles": 4475,
      "cell": 4476,
      "ĠFin": 4477,
      "Ā?Ā)Ā": 4478,
      "Ġproject": 4479,
      "Ġvvhen": 4480,
      "Ġarmy": 4481,
      "ression": 4482,
      "Ġages": 4483,
      "phone": 4484,
      "Ġacqu": 4485,
      "Ġstayed": 4486,
      "Ġapolog": 4487,
      "Ġextra": 4488,
      "Ġresults": 4489,
      "ĠCorrect": 4490,
      "Ġengine": 4491,
      "ĠĀ-ĀÂ»ăÂ¿ă": 4492,
      "Ě\"": 4493,
      "Ġcult": 4494,
      "Ġder": 4495,
      "Ġlay": 4496,
      "Ġinju": 4497,
      "ĠTer": 4498,
      "ĠTreat": 4499,
      "ĠAbs": 4500,
      "usually": 4501,
      "Ġrare": 4502,
      "ĠME": 4503,
      "ĠMil": 4504,
      "ĠPres": 4505,
      "ĠFeel": 4506,
      "Ġwashing": 4507,
      "Ġprofess": 4508,
      "Ġoffer": 4509,
      "Ġspeed": 4510,
      "Ġapplic": 4511,
      "Ġshouldn": 4512,
      "ship": 4513,
      "mbol": 4514,
      "Ġpoints": 4515,
      "taining": 4516,
      "Ġgirl": 4517,
      "ARRR": 4518,
      "-,": 4519,
      "In": 4520,
      "dra": 4521,
      "gn": 4522,
      "Ġtouch": 4523,
      "Ġft": 4524,
      "Ġhate": 4525,
      "ĠSoc": 4526,
      "Ġrepe": 4527,
      "Ġrent": 4528,
      "ĠBot": 4529,
      "olen": 4530,
      "agree": 4531,
      "Ġcover": 4532,
      "auses": 4533,
      "Ġboard": 4534,
      "ĠPhil": 4535,
      "Ġinvited": 4536,
      "finitive": 4537,
      "Ġsupposed": 4538,
      "Ġveh": 4539,
      "Ġnearly": 4540,
      "Ġdevelopment": 4541,
      "Ġtravelling": 4542,
      "Ġfavourite": 4543,
      "Ġcredit": 4544,
      "your": 4545,
      "Â©": 4546,
      "Â°": 4547,
      "ĠÃ©": 4548,
      "Ġtu": 4549,
      "Ġcode": 4550,
      "Ġdeep": 4551,
      "Ġrace": 4552,
      "ĠMal": 4553,
      "Ġstrange": 4554,
      "iment": 4555,
      "Ġalph": 4556,
      "Ġunits": 4557,
      "ĠAnswer": 4558,
      "Ġamong": 4559,
      "Ġrelig": 4560,
      "Ġslight": 4561,
      "Ġmov": 4562,
      "Ġanimal": 4563,
      "Ġcamera": 4564,
      "CC": 4565,
      "from": 4566,
      "ked": 4567,
      "Ā)Ā]Ā": 4568,
      "Ġsi": 4569,
      "Ġpresident": 4570,
      "asc": 4571,
      "ĠWN": 4572,
      "Ġforgot": 4573,
      "amb": 4574,
      "sss": 4575,
      "aint": 4576,
      "Ġvvill": 4577,
      "Ġ119": 4578,
      "Ġneeded": 4579,
      "Ġintrodu": 4580,
      "ĠEuropean": 4581,
      "Ġdebt": 4582,
      "ĠĀ(Ā.Ā.Ā": 4583,
      "Ġbirthday": 4584,
      "ĠItalian": 4585,
      "28": 4586,
      "reet": 4587,
      "Ġcry": 4588,
      "Ġrange": 4589,
      "ĠOR": 4590,
      "oof": 4591,
      "ĠFeb": 4592,
      "Ġalthough": 4593,
      "ests": 4594,
      "Ġplenty": 4595,
      "Ġenergy": 4596,
      "Ġcoat": 4597,
      "tens": 4598,
      "Ġ185": 4599,
      "Ġ188": 4600,
      "oyal": 4601,
      "ength": 4602,
      "Ġofficer": 4603,
      "ĠWilliam": 4604,
      "/.": 4605,
      "She": 4606,
      "Un": 4607,
      "han": 4608,
      "rc": 4609,
      "itude": 4610,
      "Ġmill": 4611,
      "ingu": 4612,
      "Ġdied": 4613,
      "ĠAuthor": 4614,
      "Ġrich": 4615,
      "Ġrail": 4616,
      "Ġ/âĢĺ": 4617,
      "ĠRE": 4618,
      "ĠRo": 4619,
      "Ġlikes": 4620,
      "Ġplans": 4621,
      "ERS": 4622,
      "Ġnovel": 4623,
      "Ġblock": 4624,
      "Ġterrible": 4625,
      "ĠZool": 4626,
      "ification": 4627,
      "dioms": 4628,
      "Ġgenerally": 4629,
      "Ġhurt": 4630,
      "Ġmanaged": 4631,
      "something": 4632,
      "Ā-Āēā": 4633,
      "Ġiron": 4634,
      "ĠET": 4635,
      "ĠFrom": 4636,
      "Ġ...)": 4637,
      "Ġsmell": 4638,
      "ternoon": 4639,
      "Ġactive": 4640,
      "Ġpolicy": 4641,
      "Ġattention": 4642,
      "Ġavail": 4643,
      "Ġtypical": 4644,
      "Ġbattle": 4645,
      "Ġstreng": 4646,
      "CH": 4647,
      "What": 4648,
      "fort": 4649,
      "had": 4650,
      "hood": 4651,
      "ij": 4652,
      "kon": 4653,
      "rid": 4654,
      "ă]Ā": 4655,
      "Ġsick": 4656,
      "Ġwife": 4657,
      "Ġpun": 4658,
      "ato": 4659,
      "orical": 4660,
      "Ġlve": 4661,
      "ĠES": 4662,
      "ĠEmp": 4663,
      "about": 4664,
      "uments": 4665,
      "Ġ184": 4666,
      "ăÂ¿ăÂ´ă": 4667,
      ".):": 4668,
      "Ġplayer": 4669,
      "Ġrelative": 4670,
      "exus": 4671,
      "Ġmanager": 4672,
      "ĠRussia": 4673,
      "Ġvessel": 4674,
      "NL": 4675,
      "ially": 4676,
      "vo": 4677,
      "ĠÃ°": 4678,
      "Ġnotice": 4679,
      "Ġregion": 4680,
      "Ġenjoyed": 4681,
      "Ġprim": 4682,
      "Ġmember": 4683,
      "Ġsuccessful": 4684,
      "Ġvillage": 4685,
      "ĀÂĬĂÂĥĂ": 4686,
      "ih": 4687,
      "ux": 4688,
      "uge": 4689,
      "ĠMass": 4690,
      "ĠNexus": 4691,
      "ĠJew": 4692,
      "Ġconference": 4693,
      "Ġshout": 4694,
      "Ġdead": 4695,
      "Ġplays": 4696,
      "............................": 4697,
      "0000": 4698,
      "vvays": 4699,
      "Ġimm": 4700,
      "Ġcontro": 4701,
      "Ġapplied": 4702,
      "Ġemploy": 4703,
      "ĠPhys": 4704,
      "Ġinstr": 4705,
      "Ġopened": 4706,
      "Ġmilk": 4707,
      "Ġarchitect": 4708,
      "Ġtlie": 4709,
      "29": 4710,
      "AY": 4711,
      "CE": 4712,
      "OF": 4713,
      "ured": 4714,
      "zz": 4715,
      "Ð°": 4716,
      "Ġta": 4717,
      "Ġsize": 4718,
      "Ġbran": 4719,
      "llig": 4720,
      "ĠWest": 4721,
      "Ġstates": 4722,
      "ĠRes": 4723,
      "ĠForm": 4724,
      "abet": 4725,
      "umn": 4726,
      "Ġindepend": 4727,
      "inese": 4728,
      "ĀÂĴĂ(Ā": 4729,
      "ĠParliament": 4730,
      "Ġhorse": 4731,
      "Ġ]Ā,Ā": 4732,
      "Ġtro": 4733,
      "Ġtrees": 4734,
      "Ġwat": 4735,
      "Ġbreat": 4736,
      "ĠĀÂľ": 4737,
      "Ġrock": 4738,
      "ander": 4739,
      "Ġunpleasant": 4740,
      "aven": 4741,
      "Ġclauses": 4742,
      "obile": 4743,
      "Ġoffered": 4744,
      "Ġafternoon": 4745,
      "rug": 4746,
      "ube": 4747,
      "ĠĠĠĠĠĠĠĠ": 4748,
      "Ġeasily": 4749,
      "Ġfactory": 4750,
      "Ġparticularly": 4751,
      "Ġchanged": 4752,
      "Ġissues": 4753,
      "Ġstrike": 4754,
      "ğÂ¸ăÂ¿ă": 4755,
      "regular": 4756,
      "sych": 4757,
      "Ġdetermin": 4758,
      "Ġarranged": 4759,
      "You": 4760,
      "een": 4761,
      "lu": 4762,
      "Ġcru": 4763,
      "Ġdry": 4764,
      "Ġeen": 4765,
      "lec": 4766,
      "ĠMa": 4767,
      "Ġren": 4768,
      "rian": 4769,
      "raft": 4770,
      "Ġenv": 4771,
      "ăÂ±ăÂ¸ă": 4772,
      "Ġhimself": 4773,
      "Ġcorpor": 4774,
      "Ġrunning": 4775,
      "Ġelement": 4776,
      "Ġeyes": 4777,
      "Ġpurpose": 4778,
      "Ġdestroy": 4779,
      "Ġstructure": 4780,
      "Ġextremely": 4781,
      "tf": 4782,
      "Ðµ": 4783,
      "ĠBR": 4784,
      "Ġseven": 4785,
      "Ġends": 4786,
      "Ġ178": 4787,
      "Ġfeelings": 4788,
      "ăÂ´ăÂ±ă": 4789,
      "ĠSomebody": 4790,
      "Ġwalked": 4791,
      "Ġsingular": 4792,
      "ĠAND": 4793,
      "Ġproperty": 4794,
      "Do": 4795,
      "Ġsounds": 4796,
      "rey": 4797,
      "Ġcast": 4798,
      "att": 4799,
      "atures": 4800,
      "Ġdise": 4801,
      "Ġnut": 4802,
      "Ġinf": 4803,
      "ĠTr": 4804,
      "Ġrid": 4805,
      "Ġrules": 4806,
      "ĠDr": 4807,
      "ĠFill": 4808,
      "Ġattempt": 4809,
      "abor": 4810,
      "umber": 4811,
      "Ġseat": 4812,
      "ritory": 4813,
      "Ġpret": 4814,
      "Ġempt": 4815,
      "ibility": 4816,
      "ARAT": 4817,
      "Ġadvant": 4818,
      "Ġhappening": 4819,
      "Ġshops": 4820,
      "Ġmemory": 4821,
      "Ġadvert": 4822,
      "Ġtemperature": 4823,
      "Ġwedding": 4824,
      "Ġavailable": 4825,
      "60": 4826,
      "nr": 4827,
      "page": 4828,
      "vin": 4829,
      "reed": 4830,
      "Ġrise": 4831,
      "Ġstolen": 4832,
      "adem": 4833,
      "ĠChinese": 4834,
      "Ġsmaller": 4835,
      "Ġeaten": 4836,
      "ography": 4837,
      "Ġjournal": 4838,
      "Ġprivate": 4839,
      "ĠCongress": 4840,
      "Ġconditions": 4841,
      "Ġaccording": 4842,
      "ĠTreaty": 4843,
      "ĠAbsolutely": 4844,
      "21": 4845,
      "IE": 4846,
      "iour": 4847,
      "mber": 4848,
      "uel": 4849,
      "ă)Ā.Ā": 4850,
      "ĠĀ-ĀÂ±ă": 4851,
      "Ġsav": 4852,
      "Ġdrop": 4853,
      "Ġ(Â©": 4854,
      "ĠSun": 4855,
      "ĠRight": 4856,
      "ĠRem": 4857,
      "ĠUK": 4858,
      "Ġsharp": 4859,
      "Ġrelax": 4860,
      "Ġbright": 4861,
      "ĠGeneral": 4862,
      "Ġfurniture": 4863,
      ")?": 4864,
      ",\"": 4865,
      "ded": 4866,
      "son": 4867,
      "Ġice": 4868,
      "ĠĀā": 4869,
      "Ġaud": 4870,
      "rer": 4871,
      "ena": 4872,
      "Ġmi": 4873,
      "Ġhon": 4874,
      "Ġhop": 4875,
      "ĠAE": 4876,
      "asing": 4877,
      "ĠMod": 4878,
      "Ġvoice": 4879,
      "Ġstep": 4880,
      "rage": 4881,
      "resp": 4882,
      "Ġlect": 4883,
      "Ġupset": 4884,
      "Ġvvould": 4885,
      "vvas": 4886,
      "ĂÂ¸ă\\Ă": 4887,
      "photo": 4888,
      "Ġimprint": 4889,
      "ricult": 4890,
      "Ġbirds": 4891,
      "Ġmovement": 4892,
      "Ġcleaned": 4893,
      "Ġachieve": 4894,
      "ĠRobert": 4895,
      "ĠSaturday": 4896,
      "Ġlength": 4897,
      "Ġnar": 4898,
      "Ġnobody": 4899,
      "ĠArab": 4900,
      "ĠSchool": 4901,
      "usic": 4902,
      "Ġreci": 4903,
      "ĠEast": 4904,
      "Ġur": 4905,
      "urg": 4906,
      "ĠRel": 4907,
      "Ġmeat": 4908,
      "ills": 4909,
      "ĠâĢĶâĢĶ": 4910,
      "Ġcompound": 4911,
      "ĠĠĠĠĠĠ": 4912,
      "Ġdistance": 4913,
      "Ġelection": 4914,
      "Ġofficial": 4915,
      "23": 4916,
      "bon": 4917,
      "ford": 4918,
      "uate": 4919,
      "Ġtend": 4920,
      "Ġcit": 4921,
      "Ġwet": 4922,
      "itut": 4923,
      "Ġeae": 4924,
      "Ġlit": 4925,
      "asion": 4926,
      "ĠSE": 4927,
      "ĠHen": 4928,
      "ĠLou": 4929,
      "Ġstick": 4930,
      "ula": 4931,
      "Ġplants": 4932,
      "orthern": 4933,
      "Ġhappens": 4934,
      "Ġbelie": 4935,
      "Ġindivid": 4936,
      "Ġloss": 4937,
      "ĠSept": 4938,
      "aura": 4939,
      "Ġlegal": 4940,
      "Ġhurry": 4941,
      "ĠEmpire": 4942,
      "70": 4943,
      "?âĢĿ": 4944,
      "Â®": 4945,
      "Ġsouth": 4946,
      "Ġtheatre": 4947,
      "Ġbot": 4948,
      "Ġbow": 4949,
      "Ġhund": 4950,
      "ĠCont": 4951,
      "ĠPR": 4952,
      "Ġstress": 4953,
      "Ġwebs": 4954,
      "think": 4955,
      "Ġdefe": 4956,
      "Ġadiect": 4957,
      "ago": 4958,
      "Ġens": 4959,
      "Ġcompet": 4960,
      "upid": 4961,
      "Ġmoved": 4962,
      "Ġtotal": 4963,
      "usband": 4964,
      "Ġtvvo": 4965,
      "RAT": 4966,
      "make": 4967,
      "round": 4968,
      "tin": 4969,
      "Ġai": 4970,
      "Ġccc": 4971,
      "Ġpan": 4972,
      "ĠĀÂĴĂ": 4973,
      "Ġfed": 4974,
      "Ġegg": 4975,
      "Ġinde": 4976,
      "Ġinfinitive": 4977,
      "Ġreference": 4978,
      "ĠPm": 4979,
      "ĠOly": 4980,
      "Ġheat": 4981,
      "Āēā,Ā": 4982,
      "ĠRome": 4983,
      "ĠRew": 4984,
      "Ġneither": 4985,
      "ĠJul": 4986,
      "Ġchall": 4987,
      "Ġchoose": 4988,
      "Ä±k": 4989,
      "Ġsuggests": 4990,
      "ĠScotland": 4991,
      "Ġdefinitions": 4992,
      "OE": 4993,
      "informal": 4994,
      "Ġcrow": 4995,
      "Ġwa": 4996,
      "Ġpian": 4997,
      "Ġfif": 4998,
      "ĀÂ·": 4999,
      "ĠPort": 5000,
      "stract": 5001,
      "chan": 5002,
      "osing": 5003,
      "Ā'Ā.Ā.Ā": 5004,
      "Ġcoal": 5005,
      "Ġflow": 5006,
      "Ġ180": 5007,
      "Ġpertaining": 5008,
      "Ġrecent": 5009,
      "ological": 5010,
      "ĠZeal": 5011,
      "Ġinteract": 5012,
      "Ġactivity": 5013,
      "Ġtelevision": 5014,
      "ĠĀęā": 5015,
      "He": 5016,
      "cape": 5017,
      "Ãĺ": 5018,
      "ĠĀ[Ā(Ā": 5019,
      "Ġdoub": 5020,
      "alse": 5021,
      "Ġnative": 5022,
      "ican": 5023,
      "Ġthird": 5024,
      "Ġsubs": 5025,
      "Ġaltern": 5026,
      "Ġchance": 5027,
      "Ġliqu": 5028,
      "hens": 5029,
      "Ġvvhat": 5030,
      "clus": 5031,
      "Ġknowledge": 5032,
      "Ġkept": 5033,
      "Ġgenus": 5034,
      "Ġkeeping": 5035,
      "Ġdepend": 5036,
      "Ġtransl": 5037,
      "Ġreceived": 5038,
      "Ġdangerous": 5039,
      "ă-ĀÂ·ă": 5040,
      "Ġimmediately": 5041,
      "ĠExercises": 5042,
      "ironment": 5043,
      "Ġinjured": 5044,
      "Ġempty": 5045,
      "//": 5046,
      "AU": 5047,
      "IST": 5048,
      "cal": 5049,
      "dom": 5050,
      "gest": 5051,
      "ique": 5052,
      "ket": 5053,
      "rem": 5054,
      "Ġbound": 5055,
      "Ġfocus": 5056,
      "isis": 5057,
      "Ġdue": 5058,
      "Ġeff": 5059,
      "Ġ(.": 5060,
      "Ġyellow": 5061,
      "ĠBoth": 5062,
      "semb": 5063,
      "ĠDial": 5064,
      "Ġatthe": 5065,
      "Ġcontract": 5066,
      "ixes": 5067,
      "ăÂ¸ăÂŃă": 5068,
      "Ġopportun": 5069,
      "Ġtraining": 5070,
      "Ġprovide": 5071,
      "Ġskin": 5072,
      "Ġglasses": 5073,
      "Ġestablished": 5074,
      "Ġearlier": 5075,
      "Ġvehicle": 5076,
      "ĠZealand": 5077,
      "<\"": 5078,
      "care": 5079,
      "Ĵ!": 5080,
      "ĠĀ-Ā(Ā": 5081,
      "ĠĀ-ĀÂ¿ă": 5082,
      "Ġbath": 5083,
      "Ġmult": 5084,
      "Ġedition": 5085,
      "Ġgas": 5086,
      "Ġvers": 5087,
      "Ġbegan": 5088,
      "Ġfort": 5089,
      "ĠLast": 5090,
      "unk": 5091,
      "ĀÂĥĂ(Ā": 5092,
      "Ġclosed": 5093,
      "Ġthank": 5094,
      "Ġkeys": 5095,
      "ĠAlthough": 5096,
      "Ġfinally": 5097,
      "Ġsky": 5098,
      "Ġshows": 5099,
      "Ġmarket": 5100,
      "Ġseparate": 5101,
      "Ġbehaviour": 5102,
      "Ġjacket": 5103,
      "34": 5104,
      "99": 5105,
      "CO": 5106,
      "ki": 5107,
      "Ã¬": 5108,
      "Ġtim": 5109,
      "Ġtherm": 5110,
      "Ġnnn": 5111,
      "ĠAT": 5112,
      "Ġgra": 5113,
      "Ġran": 5114,
      "ĠMid": 5115,
      "ĠLaura": 5116,
      "rial": 5117,
      "ĠRare": 5118,
      "Ġworry": 5119,
      "Ġknew": 5120,
      "Ġpoor": 5121,
      "ĠNov": 5122,
      "Ġfriendly": 5123,
      "Ġenter": 5124,
      "Ġinstruct": 5125,
      "Ġelected": 5126,
      "ĠVerb": 5127,
      "brevi": 5128,
      "Ġprogramme": 5129,
      "ortunately": 5130,
      "Ġdocument": 5131,
      "-Ā.Ā": 5132,
      "uc": 5133,
      "ĥĂÂĬĂ": 5134,
      "Ā-ĀÂ±ă": 5135,
      "Ġast": 5136,
      "inin": 5137,
      "Ġdigital": 5138,
      "Ġec": 5139,
      "Ġlands": 5140,
      "Ā}Ā.Ā.Ā": 5141,
      "Ā}Ā;Ā": 5142,
      "Ā-Ā.Ā)Ā": 5143,
      "enth": 5144,
      "igation": 5145,
      "Ġasleep": 5146,
      "ÉĻm": 5147,
      "rend": 5148,
      "play": 5149,
      "Ġpoet": 5150,
      "aaÄ±": 5151,
      "ăÂ¶ă-Ā": 5152,
      "Ġcareer": 5153,
      "ĠExample": 5154,
      "Ġelectric": 5155,
      "Ġhumans": 5156,
      "Ġpractice": 5157,
      "ĠĀ`ğ": 5158,
      "Ġinflu": 5159,
      "IM": 5160,
      "UR": 5161,
      "Ã·": 5162,
      "ĠÃł": 5163,
      "Ġcy": 5164,
      "Ġfle": 5165,
      "Ġdent": 5166,
      "Ġdream": 5167,
      "arian": 5168,
      "Ġnone": 5169,
      ".......": 5170,
      "Ġalvvays": 5171,
      "Ġadmin": 5172,
      "Ġblood": 5173,
      "ATE": 5174,
      "Ġincludes": 5175,
      "ransitive": 5176,
      "Ġlegisl": 5177,
      "Ġillness": 5178,
      "Ġadverb": 5179,
      "Ġhigher": 5180,
      "Ġexactly": 5181,
      "ĠRewrite": 5182,
      "()": 5183,
      ".),": 5184,
      "66": 5185,
      "AE": 5186,
      "dress": 5187,
      "rat": 5188,
      "sm": 5189,
      "take": 5190,
      "Ġtli": 5191,
      "ality": 5192,
      "Ġie": 5193,
      "ĠMore": 5194,
      "ĠLangu": 5195,
      "right": 5196,
      "ĠFl": 5197,
      "Ġshower": 5198,
      "Ġprices": 5199,
      "Ġflu": 5200,
      "enses": 5201,
      "Ġinvite": 5202,
      "load": 5203,
      "Ġsettle": 5204,
      "ashion": 5205,
      "Ġoccup": 5206,
      "Ġeye": 5207,
      "Ġgrammar": 5208,
      "ĠColloc": 5209,
      "Ġtransport": 5210,
      "BR": 5211,
      "ye": 5212,
      "Ġpair": 5213,
      "Ġeffic": 5214,
      "aring": 5215,
      "Ġ,ĀĔ": 5216,
      "ĠIx": 5217,
      "Ġstore": 5218,
      "Ġstyle": 5219,
      "Ġuses": 5220,
      "Ġdevice": 5221,
      "Ġyours": 5222,
      "Ġprovided": 5223,
      "Ġspecies": 5224,
      "Ġ.............................": 5225,
      "Ġsolution": 5226,
      "haust": 5227,
      "Ġmountain": 5228,
      "Ġassociated": 5229,
      "55": 5230,
      "78": 5231,
      "AD": 5232,
      "ĠÃ¦": 5233,
      "Ġcc": 5234,
      "Ġcab": 5235,
      "atory": 5236,
      "isation": 5237,
      "ishes": 5238,
      "Ġdro": 5239,
      "Ġni": 5240,
      "ĠTE": 5241,
      "ĠTwo": 5242,
      "Ġ(+": 5243,
      "vere": 5244,
      "oti": 5245,
      "ĠWords": 5246,
      "Ġstupid": 5247,
      "uls": 5248,
      "Ġate": 5249,
      "ÉĻo": 5250,
      "Ġleast": 5251,
      "Ġknovv": 5252,
      "Ġprevent": 5253,
      "Ġserv": 5254,
      "EST": 5255,
      "Ġhowever": 5256,
      "Ġbuildings": 5257,
      "Ġcollocation": 5258,
      "Ġannoun": 5259,
      "Ġoriginal": 5260,
      "Ġfault": 5261,
      "Ġquality": 5262,
      "hol": 5263,
      "iber": 5264,
      "uff": 5265,
      "Ā.Ā.Ā{Ā": 5266,
      "Ġcas": 5267,
      "Ġwr": 5268,
      "Ġbored": 5269,
      "Ġina": 5270,
      "ĠIre": 5271,
      "ĠIwas": 5272,
      "Ġgar": 5273,
      "ĠCouncil": 5274,
      "ĠPron": 5275,
      "ĠBW": 5276,
      "verty": 5277,
      "Ġexec": 5278,
      "antic": 5279,
      "Ġprop": 5280,
      "ĠVi": 5281,
      "Ġdisagree": 5282,
      "aaa": 5283,
      "Ġsmart": 5284,
      "Ġintellig": 5285,
      "Ġmustn": 5286,
      "Ġraise": 5287,
      "ĠInternet": 5288,
      "Ġpressure": 5289,
      "ĠSteve": 5290,
      "lar": 5291,
      "past": 5292,
      "rk": 5293,
      "ĠÆı": 5294,
      "Ġscience": 5295,
      "anc": 5296,
      "asm": 5297,
      "Ā>Ā.Ā?Ā": 5298,
      "Ġvow": 5299,
      "Ġvote": 5300,
      "ĠBi": 5301,
      "Ġdovvn": 5302,
      "Ġusage": 5303,
      "Ġgov": 5304,
      "ishing": 5305,
      "Ġupd": 5306,
      "ously": 5307,
      "Ġspir": 5308,
      "Ġknows": 5309,
      "Ġneedn": 5310,
      "RRRR": 5311,
      "Ġbrown": 5312,
      "Ġaccur": 5313,
      "Ġsymbol": 5314,
      "Ġfinding": 5315,
      "Ġmetal": 5316,
      "Ġfeed": 5317,
      "Ġparticiple": 5318,
      "oking": 5319,
      "Ġproduced": 5320,
      "ĠEveryone": 5321,
      "Ġtasks": 5322,
      "Ġmountains": 5323,
      "Ġdiscussion": 5324,
      "Ġindustry": 5325,
      "uggage": 5326,
      "Ġproducts": 5327,
      "Ġhouses": 5328,
      ")...": 5329,
      ",,": 5330,
      "32": 5331,
      "48": 5332,
      "96": 5333,
      "Sp": 5334,
      "ban": 5335,
      "net": 5336,
      "what": 5337,
      "zing": 5338,
      "Ð¾": 5339,
      "ğā": 5340,
      "Ġti": 5341,
      "Ġlend": 5342,
      "ĠAir": 5343,
      "âĢľ": 5344,
      "lls": 5345,
      "ĠNor": 5346,
      "ĠGary": 5347,
      "Ġaddition": 5348,
      "ĠInst": 5349,
      "Ġcompan": 5350,
      "overed": 5351,
      "ăÂ¿ăÂ´ă-Ā": 5352,
      "Ġ137": 5353,
      "Ġreceive": 5354,
      "Ġirregular": 5355,
      "ĠEditor": 5356,
      "Ġsyllable": 5357,
      "ĠGrammar": 5358,
      "Ġslightly": 5359,
      "Ġchalleng": 5360,
      ".^": 5361,
      "CT": 5362,
      "lines": 5363,
      "nes": 5364,
      "uary": 5365,
      "Ã²": 5366,
      "Ġsection": 5367,
      "Ġcras": 5368,
      "Ġpowers": 5369,
      "Ġhar": 5370,
      "Ġld": 5371,
      "Ġlines": 5372,
      "ĠSim": 5373,
      "utral": 5374,
      "idy": 5375,
      "ĠĀÂ±ă,Ā": 5376,
      "Ġexchange": 5377,
      "ustr": 5378,
      "................................": 5379,
      "Ġdisco": 5380,
      "ipment": 5381,
      "ğÂ»ăÂ»ă": 5382,
      "Ġintegr": 5383,
      "Ġbelief": 5384,
      "Ġmetaph": 5385,
      "Ġcapt": 5386,
      "tained": 5387,
      "Ġavoid": 5388,
      "ĠSupp": 5389,
      "ĠCharles": 5390,
      "ĠSenate": 5391,
      "Ġenvironment": 5392,
      "''": 5393,
      "90": 5394,
      "could": 5395,
      "oot": 5396,
      "ossible": 5397,
      "ă{Ā": 5398,
      "Ā>Ā=Ā": 5399,
      "Ġpred": 5400,
      "ening": 5401,
      "Ġmerc": 5402,
      "Ġmobile": 5403,
      "Ġlone": 5404,
      "Ġant": 5405,
      "Ġinit": 5406,
      "Ġrap": 5407,
      "Ġrank": 5408,
      "Ġrule": 5409,
      "ĠMart": 5410,
      "rive": 5411,
      "rovv": 5412,
      "Ġshut": 5413,
      "Ġcommer": 5414,
      "Ġvvay": 5415,
      "Ġvvhere": 5416,
      "Ġpool": 5417,
      "Ġ110": 5418,
      "Ġtwenty": 5419,
      "cript": 5420,
      "Ġwriter": 5421,
      "going": 5422,
      "Ġstudying": 5423,
      "Ġadverbs": 5424,
      "ĠChristian": 5425,
      "Ġdamage": 5426,
      "ĠMexico": 5427,
      "OP": 5428,
      "eum": 5429,
      "far": 5430,
      "iri": 5431,
      "mier": 5432,
      "wa": 5433,
      "wl": 5434,
      "ă}": 5435,
      "Ġ}": 5436,
      "Ġtur": 5437,
      "innn": 5438,
      "ona": 5439,
      "Ġpages": 5440,
      "Ġbud": 5441,
      "itute": 5442,
      "Ġere": 5443,
      "ĠDep": 5444,
      "ăÂ»ăÂ»ăÂ±ă": 5445,
      "Ġunion": 5446,
      "Ġadult": 5447,
      "ĠWeb": 5448,
      "Ġbridge": 5449,
      "were": 5450,
      "Ġasking": 5451,
      "ception": 5452,
      "Ġcele": 5453,
      "Ġski": 5454,
      "Ġadded": 5455,
      "Ġstrongly": 5456,
      "Ġcooking": 5457,
      "Ġcomplain": 5458,
      "Ġabsolutely": 5459,
      "Ġvegetables": 5460,
      "Ġtradition": 5461,
      "Ġphoned": 5462,
      "bra": 5463,
      "cent": 5464,
      "ners": 5465,
      "ued": 5466,
      "ĠĀē": 5467,
      "Ā)Ā)Ā.Ā": 5468,
      "hest": 5469,
      "Ġsom": 5470,
      "Ġsight": 5471,
      "Ġcand": 5472,
      "Ġfest": 5473,
      "orks": 5474,
      "Ġluggage": 5475,
      "alt": 5476,
      "Ġancient": 5477,
      "ĠAM": 5478,
      "Ġ(|": 5479,
      "ĠCa": 5480,
      "ĠMich": 5481,
      "ĠHaving": 5482,
      "ĠOx": 5483,
      "ĠBank": 5484,
      "Ġheight": 5485,
      "Ġdoll": 5486,
      "Ġwash": 5487,
      "Ġshown": 5488,
      "ociate": 5489,
      "osen": 5490,
      "alled": 5491,
      "Ġunf": 5492,
      "resh": 5493,
      "Ġclub": 5494,
      "ăÂŃăÂ»ă": 5495,
      "Ġcommittee": 5496,
      "often": 5497,
      "Ġremove": 5498,
      "Ġfilms": 5499,
      "Ġpaint": 5500,
      "Ġreview": 5501,
      "Ġnewspapers": 5502,
      "Ġissue": 5503,
      "ĠCollocations": 5504,
      ",.": 5505,
      "ires": 5506,
      "ooth": 5507,
      "Ā&Ā": 5508,
      "Ġ@": 5509,
      "Ġtire": 5510,
      "innnnn": 5511,
      "Ġwomen": 5512,
      "Ġdom": 5513,
      "Ġdouble": 5514,
      "Ġhuge": 5515,
      "ĠLib": 5516,
      "sequ": 5517,
      "Ġweren": 5518,
      "Ġkil": 5519,
      "ÉĻz": 5520,
      "illed": 5521,
      "iance": 5522,
      "Ġamb": 5523,
      "ĠĀÂ»ăÂ¿ă": 5524,
      "ATION": 5525,
      "Ġ(=|": 5526,
      "Ġminister": 5527,
      "ituitary": 5528,
      "Ġmuseum": 5529,
      "print": 5530,
      "Ġoccur": 5531,
      "Ġpromise": 5532,
      "Ġinvolved": 5533,
      "Ġcomplex": 5534,
      "Ġdemand": 5535,
      "happy": 5536,
      "Ġmagazine": 5537,
      "ĠIreland": 5538,
      "done": 5539,
      "pn": 5540,
      "ĠtO": 5541,
      "Ġtal": 5542,
      "Ġsch": 5543,
      "ĀÂĥĂÂĮĂ": 5544,
      "Ā.Ā)Ā.Ā.Ā": 5545,
      "Ġhusband": 5546,
      "Ġnn": 5547,
      "uses": 5548,
      "ĠCount": 5549,
      "ĠEar": 5550,
      "riage": 5551,
      "amed": 5552,
      "ĠYear": 5553,
      "Ġconduct": 5554,
      "ă-ĀÂ±ă": 5555,
      "Ġnotes": 5556,
      "ĠKaren": 5557,
      "Ġagent": 5558,
      "Ġpoverty": 5559,
      "Ġtrous": 5560,
      "Ġeverybody": 5561,
      "Ġpersons": 5562,
      "Ġspeaker": 5563,
      "ğÂ´ăÂ·ă": 5564,
      "Ġbedroom": 5565,
      "ĠĀ(Ā?Ā)Ā,Ā": 5566,
      "Ġlovely": 5567,
      "Ġ.....": 5568,
      "Ġphysical": 5569,
      "Ġstraight": 5570,
      "Ġtitle": 5571,
      "ĠĀ&Ā.Ā.Ā": 5572,
      "OL": 5573,
      "XC": 5574,
      "hus": 5575,
      "oa": 5576,
      "pages": 5577,
      "sb": 5578,
      "wise": 5579,
      "ā.Ā": 5580,
      "ĠĀĚ\"": 5581,
      "Ġcases": 5582,
      "Ġtheory": 5583,
      "ĠAR": 5584,
      "Ġrate": 5585,
      "ĠOl": 5586,
      "ĀÂĴĂ\\Ă": 5587,
      "Ġcance": 5588,
      "employ": 5589,
      "Ġnovv": 5590,
      "ĠCommon": 5591,
      "Ġimpossible": 5592,
      "Ġtruth": 5593,
      "Ġ177": 5594,
      "ĠSecond": 5595,
      "Ġmeasure": 5596,
      "Ġdelay": 5597,
      "ĠHistory": 5598,
      "Ġtowards": 5599,
      "conscious": 5600,
      "Ġsatis": 5601,
      "Ġcouple": 5602,
      "Ġinstrument": 5603,
      "').": 5604,
      "car": 5605,
      "present": 5606,
      "zer": 5607,
      "Ā.Ā.Ā)Ā.Ā": 5608,
      "hel": 5609,
      "Ġpal": 5610,
      "Ġpull": 5611,
      "Ġfog": 5612,
      "ald": 5613,
      "Ġnine": 5614,
      "ĠSub": 5615,
      "ĠPve": 5616,
      "ĠEve": 5617,
      "Ġstars": 5618,
      "Ġsteal": 5619,
      "Ġstories": 5620,
      "Ġalarm": 5621,
      "Ġunique": 5622,
      "plement": 5623,
      "Ġherself": 5624,
      "Ġphil": 5625,
      "Ġcarried": 5626,
      "Ġspect": 5627,
      "Ġthemselves": 5628,
      "ĠAnt": 5629,
      "Ġrelated": 5630,
      "ĠArt": 5631,
      "Ġinternational": 5632,
      "Ġclearly": 5633,
      "Ġauthority": 5634,
      "didn": 5635,
      "Ġfrequently": 5636,
      "Ġalphabet": 5637,
      "ĠHenry": 5638,
      "ĠWebster": 5639,
      "97": 5640,
      "IG": 5641,
      "TER": 5642,
      "Ut": 5643,
      "hr": 5644,
      "his": 5645,
      "mas": 5646,
      "more": 5647,
      "nut": 5648,
      "Ġtill": 5649,
      "Ġcra": 5650,
      "Ġburn": 5651,
      "oul": 5652,
      "Ġdim": 5653,
      "alys": 5654,
      "icine": 5655,
      "ette": 5656,
      "Ġthreat": 5657,
      "ĠOM": 5658,
      "ĠLiaison": 5659,
      "ÉĻt": 5660,
      "Ġcoin": 5661,
      "Ġdisp": 5662,
      "AND": 5663,
      "ĠÉĻÉĻÉĻ": 5664,
      "Ġkeeps": 5665,
      "ĠAsia": 5666,
      "Ġcrown": 5667,
      "Ġincreased": 5668,
      "Ġeconomy": 5669,
      "Ġinternal": 5670,
      "Ġessay": 5671,
      "ĠPossible": 5672,
      "Ġfigures": 5673,
      "Ġpiano": 5674,
      "Ik": 5675,
      "bel": 5676,
      "ean": 5677,
      "pal": 5678,
      "tu": 5679,
      "ui": 5680,
      "Ā+Ā<Ā/Ā": 5681,
      "Ġot": 5682,
      "ori": 5683,
      "Ġlift": 5684,
      "Ġrough": 5685,
      "Ġroof": 5686,
      "Ġreach": 5687,
      "idays": 5688,
      "Ā+āĆă": 5689,
      "rog": 5690,
      "ĠFind": 5691,
      "Ġabstract": 5692,
      "ourt": 5693,
      "Ġ.\\": 5694,
      "them": 5695,
      "Ġgrass": 5696,
      "Ġ131": 5697,
      "Ġcountable": 5698,
      "ĠĠĠĠĠĠĠ": 5699,
      "ARAR": 5700,
      "positions": 5701,
      "Ġcomputers": 5702,
      "Ġdeveloped": 5703,
      "Ġpromised": 5704,
      "ommod": 5705,
      "Ġlistening": 5706,
      "Ġchiefly": 5707,
      "Ġallowed": 5708,
      "ĠPrime": 5709,
      "cellent": 5710,
      "Ġstrength": 5711,
      "ĠSunday": 5712,
      "Ġrecipe": 5713,
      "ĠOlymp": 5714,
      "%Ă": 5715,
      "35": 5716,
      "aic": 5717,
      "ael": 5718,
      "rf": 5719,
      "vvers": 5720,
      "will": 5721,
      "ĠĀą": 5722,
      "Ġcities": 5723,
      "Ġwli": 5724,
      "Ġbene": 5725,
      "Ġbott": 5726,
      "itar": 5727,
      "Ġhang": 5728,
      "Ġlock": 5729,
      "ĠTake": 5730,
      "icated": 5731,
      "llovv": 5732,
      "ĠCome": 5733,
      "ĠCity": 5734,
      "sec": 5735,
      "ĠDut": 5736,
      "vert": 5737,
      "Ġitself": 5738,
      "ĠFOR": 5739,
      "isted": 5740,
      "illy": 5741,
      "ender": 5742,
      "Ġplaced": 5743,
      "Ġcloud": 5744,
      "Ġcool": 5745,
      "Ġpoem": 5746,
      "irection": 5747,
      "Ġ130": 5748,
      "Ġamaz": 5749,
      "Ġdecisions": 5750,
      "Ġrights": 5751,
      "Ġvvell": 5752,
      "Ġbigger": 5753,
      "Ġdepends": 5754,
      "Ġclassical": 5755,
      "Ġincluded": 5756,
      "Ġsolid": 5757,
      "Ġinternet": 5758,
      "Ġtechnology": 5759,
      "ĠAugust": 5760,
      "Ġlatest": 5761,
      "how": 5762,
      "hod": 5763,
      "oi": 5764,
      "Ð¿": 5765,
      "Ġ+ā": 5766,
      "ĠĀ[Ā+Ā": 5767,
      "Ġoc": 5768,
      "Ġbold": 5769,
      "Ġfem": 5770,
      "Ġhost": 5771,
      "ĠTra": 5772,
      "ician": 5773,
      "ĠSU": 5774,
      "ĠBar": 5775,
      "terly": 5776,
      "ÉĻb": 5777,
      "Ġcheap": 5778,
      "Ġrelating": 5779,
      "Ġregret": 5780,
      "Ġobl": 5781,
      "does": 5782,
      "Ġconnection": 5783,
      "Ġstanding": 5784,
      "Ġequipment": 5785,
      "Ġphoto": 5786,
      "Ġcopy": 5787,
      "Ġordinary": 5788,
      "ĠIrish": 5789,
      "ĠAnglo": 5790,
      "fortable": 5791,
      "Ġlecture": 5792,
      "Ġhundred": 5793,
      "*.": 5794,
      "98": 5795,
      ">'": 5796,
      "Gr": 5797,
      "LL": 5798,
      "tra": 5799,
      "ĠÃŀ": 5800,
      "Ġtor": 5801,
      "Ġsong": 5802,
      "Ġwit": 5803,
      "ĠĀÂĴ!": 5804,
      "Ġdirection": 5805,
      "ĠĂ(Ā": 5806,
      "Ġlack": 5807,
      "ari": 5808,
      "āāā": 5809,
      "Ġthor": 5810,
      "ĠMer": 5811,
      "ĠPart": 5812,
      "ĠEdition": 5813,
      "ă.Ā.Ā": 5814,
      "ishop": 5815,
      "Ġchoice": 5816,
      "Ġbutter": 5817,
      "ĠStreet": 5818,
      "Ġcolumn": 5819,
      "ăÂ´ăÂ·ă": 5820,
      "ESS": 5821,
      "Ġconson": 5822,
      "Ġsurface": 5823,
      "Ġbegins": 5824,
      "Ġproduce": 5825,
      "Ġstandard": 5826,
      ".']": 5827,
      "Ġdivided": 5828,
      "Ġjoin": 5829,
      "Ġgrowth": 5830,
      "Ġadopted": 5831,
      "Ġinstructions": 5832,
      "AP": 5833,
      "TR": 5834,
      "Tn": 5835,
      "UU": 5836,
      "\\-": 5837,
      "ware": 5838,
      "year": 5839,
      "Ġic": 5840,
      "Ġtions": 5841,
      "Ġakin": 5842,
      "Ġss": 5843,
      "Ġcot": 5844,
      "anced": 5845,
      "ancial": 5846,
      "ĠIII": 5847,
      "ĠSS": 5848,
      "ĠOS": 5849,
      "ĠEl": 5850,
      "ola": 5851,
      "ĠNations": 5852,
      "Ġneare": 5853,
      "istics": 5854,
      "anted": 5855,
      "unn": 5856,
      "ăÂ¯ăÂ´ă": 5857,
      "ăÂ¯ăÂ¶ă-Ā": 5858,
      "iel": 5859,
      "ĠâĢĶ>": 5860,
      "inded": 5861,
      "Ġcove": 5862,
      "bert": 5863,
      "Ġformer": 5864,
      "Ġspelling": 5865,
      "well": 5866,
      "Ā%Ā.Ā": 5867,
      "Ġrepa": 5868,
      "Ġminor": 5869,
      "ĠNeither": 5870,
      "ĀÂĢā-Ā": 5871,
      "Ġmachines": 5872,
      "Ġtrousers": 5873,
      "100": 5874,
      "37": 5875,
      "Are": 5876,
      "IA": 5877,
      "bes": 5878,
      "Ā-Ā+ā": 5879,
      "ĠĀ(Ā:Ā": 5880,
      "onia": 5881,
      "Ġdiet": 5882,
      "Ġnu": 5883,
      "ĠAD": 5884,
      "ĠSa": 5885,
      "usual": 5886,
      "ĠMary": 5887,
      "Ġisland": 5888,
      "Ġstro": 5889,
      "Ġareas": 5890,
      "Ġchur": 5891,
      "Ġchosen": 5892,
      "Ġcards": 5893,
      "Ġcontaining": 5894,
      "Ġdiss": 5895,
      "Ġsmooth": 5896,
      "Ġconsult": 5897,
      "ANA": 5898,
      "ĠSomeone": 5899,
      "Ġtells": 5900,
      "Ġarticles": 5901,
      "Ġdifficulty": 5902,
      "Ġ..........................": 5903,
      "Ġphysics": 5904,
      "Ġcolonies": 5905,
      "Ġdisappoint": 5906,
      "Ġmessage": 5907,
      "ĠGovernment": 5908,
      "Ġdisease": 5909,
      "Sn": 5910,
      "Where": 5911,
      "down": 5912,
      "ker": 5913,
      "tn": 5914,
      "Â£": 5915,
      "Ġ#": 5916,
      "Ā.Ā]Ā?Ā": 5917,
      "ĠĀ)Ā:Ā": 5918,
      "Ġsect": 5919,
      "Ġsave": 5920,
      "Ġodd": 5921,
      "eration": 5922,
      "Ġwinter": 5923,
      "Ġfer": 5924,
      "Ġdish": 5925,
      "ĠAA": 5926,
      "ĠAe": 5927,
      "asure": 5928,
      "Ġthus": 5929,
      "Ġdeli": 5930,
      "Ġplum": 5931,
      "ĠInte": 5932,
      "agine": 5933,
      "Ġclause": 5934,
      "idered": 5935,
      "Ġthanks": 5936,
      "ĠIfyou": 5937,
      "Ġcheer": 5938,
      "Ġconsidered": 5939,
      "Ġsett": 5940,
      "Ġsalary": 5941,
      "ĠOrder": 5942,
      "Ġsecure": 5943,
      "Ġapplication": 5944,
      "Ġrepaired": 5945,
      "-),": 5946,
      "iit": 5947,
      "iers": 5948,
      "sam": 5949,
      "ă<Ā/Ā": 5950,
      "Ġbes": 5951,
      "ences": 5952,
      "Ġmap": 5953,
      "Ġmouth": 5954,
      "Ġdrove": 5955,
      "Ġanti": 5956,
      "ĠTim": 5957,
      "oting": 5958,
      "Ġstock": 5959,
      "Ġexhaust": 5960,
      "Ġworse": 5961,
      "ÉĻri": 5962,
      "outhern": 5963,
      "vvork": 5964,
      "Ġteeth": 5965,
      "ogy": 5966,
      "Ġspite": 5967,
      "Ġ136": 5968,
      "Ġhomework": 5969,
      "ĠRev": 5970,
      "Ġlaws": 5971,
      "Ġsuggested": 5972,
      "ssssssss": 5973,
      "Ġchanging": 5974,
      "ĠÃĭÃ¾a": 5975,
      "Ġticket": 5976,
      "Ġemotions": 5977,
      "Ġneighbours": 5978,
      "26": 5979,
      "27": 5980,
      "47": 5981,
      "TH": 5982,
      "house": 5983,
      "kw": 5984,
      "mat": 5985,
      "mal": 5986,
      "zen": 5987,
      "ÃĿ": 5988,
      "Ġgun": 5989,
      "ĠCat": 5990,
      "ĠCourt": 5991,
      "Ġrow": 5992,
      "Ġidioms": 5993,
      "ctions": 5994,
      "Ġrepl": 5995,
      "ĠBec": 5996,
      "iles": 5997,
      "ĠNav": 5998,
      "irm": 5999,
      "eeee": 6000,
      "Ġdoct": 6001,
      "Ġusers": 6002,
      "ested": 6003,
      "Ġdistinct": 6004,
      "ĠEverybody": 6005,
      "ĠVery": 6006,
      "Ġconsisting": 6007,
      "Ġcomparative": 6008,
      "Ġduty": 6009,
      "Ġtroops": 6010,
      "sembly": 6011,
      "ĠLanguage": 6012,
      "Ġcompanies": 6013,
      "Ġrapid": 6014,
      "58": 6015,
      "ID": 6016,
      "OK": 6017,
      "craft": 6018,
      "iar": 6019,
      "pite": 6020,
      "sis": 6021,
      "ĴĂ(Ā": 6022,
      "isy": 6023,
      "Ġeer": 6024,
      "Ā}Ā.Āę": 6025,
      "ĠCH": 6026,
      "uted": 6027,
      "ĠPE": 6028,
      "ĠPat": 6029,
      "ĠPal": 6030,
      "Ġislands": 6031,
      "str": 6032,
      "imate": 6033,
      "Ġworn": 6034,
      "Ġene": 6035,
      "ĠUnder": 6036,
      "ograp": 6037,
      "Ä±t": 6038,
      "Ġflour": 6039,
      "Ġprevious": 6040,
      "Ġaccommod": 6041,
      "Ġmanner": 6042,
      "ĠQue": 6043,
      "Ġresign": 6044,
      "ĠHowever": 6045,
      "ĠÄ°t": 6046,
      "Ġscreen": 6047,
      "Ġdistingu": 6048,
      "Ġhotels": 6049,
      "Ġcreate": 6050,
      "ĀÂ¯ă": 6051,
      "without": 6052,
      "Ġfavor": 6053,
      "ciousness": 6054,
      "ĠJapanese": 6055,
      "Ġmanagement": 6056,
      "respond": 6057,
      "Ġindividual": 6058,
      "dro": 6059,
      "hot": 6060,
      "Ă[": 6061,
      "Ġsle": 6062,
      "Ġopt": 6063,
      "Ġdyn": 6064,
      "eds": 6065,
      "oma": 6066,
      "asas": 6067,
      "lli": 6068,
      "Ġrn": 6069,
      "Ġriv": 6070,
      "ĠPac": 6071,
      "start": 6072,
      "ĠBu": 6073,
      "Ā+ā.Ā]Ā": 6074,
      "ams": 6075,
      "ĠNic": 6076,
      "ĠNobody": 6077,
      "urance": 6078,
      "iring": 6079,
      "Ġitems": 6080,
      "ĠRich": 6081,
      "ăÂ»ăÂ»ă": 6082,
      "quest": 6083,
      "Ġabbrevi": 6084,
      "hington": 6085,
      "Ġspring": 6086,
      "Ġoffers": 6087,
      "ăÂŃă-Ā": 6088,
      "Ġpoll": 6089,
      "ĠChief": 6090,
      "ixed": 6091,
      "Ġcorner": 6092,
      "Ġjobs": 6093,
      "Ġstarts": 6094,
      "Ġentire": 6095,
      "Ġsales": 6096,
      "Ā%Ă%Ă": 6097,
      "Ġexcited": 6098,
      "ĠMaria": 6099,
      "Ġdaughter": 6100,
      "Ġpotential": 6101,
      "Ġemails": 6102,
      "Ġafford": 6103,
      "ĠEmma": 6104,
      "isphere": 6105,
      "Ġpublished": 6106,
      "Ġdetermined": 6107,
      "Ġpretty": 6108,
      "ĠĀāğ": 6109,
      ".\\": 6110,
      "NE": 6111,
      "bor": 6112,
      "hl": 6113,
      "just": 6114,
      "press": 6115,
      "vl": 6116,
      "Ġtie": 6117,
      "Ġspl": 6118,
      "itors": 6119,
      "Ġhi": 6120,
      "Ġnations": 6121,
      "ĠMad": 6122,
      "ĠMrs": 6123,
      "Ġvan": 6124,
      "Ġreact": 6125,
      "olf": 6126,
      "cean": 6127,
      "ĠDuring": 6128,
      "ulations": 6129,
      "ĠGod": 6130,
      "ĠJess": 6131,
      "ishment": 6132,
      "ĠVir": 6133,
      "ĠThose": 6134,
      "Ä±z": 6135,
      "Ġcontrib": 6136,
      "Ġ112": 6137,
      "atherine": 6138,
      "Ġfollovv": 6139,
      "Ġtermin": 6140,
      "Ġrepair": 6141,
      "ĠAdject": 6142,
      "Ġentry": 6143,
      "Ġbasket": 6144,
      "Ġconstruct": 6145,
      "Ġspeakers": 6146,
      "Ġmarked": 6147,
      "Ġdiscovered": 6148,
      "ĂÂĬĂÂ¸ă": 6149,
      "OME": 6150,
      "Ġpolitics": 6151,
      "ĠScott": 6152,
      "Ġyounger": 6153,
      "Ġdefinition": 6154,
      "ĠĀÂ¶ăÃ·": 6155,
      "Ġcups": 6156,
      "urious": 6157,
      "ĠJanuary": 6158,
      "Ġslowly": 6159,
      "Ġdetails": 6160,
      "Ġattractive": 6161,
      "ĠBelg": 6162,
      "Ġteaching": 6163,
      "ĠCatholic": 6164,
      "Ġrarely": 6165,
      "ademic": 6166,
      "92": 6167,
      "NA": 6168,
      "gress": 6169,
      "pet": 6170,
      "ĠĀĂ\"": 6171,
      "inating": 6172,
      "Ġsons": 6173,
      "Ġpsych": 6174,
      "ita": 6175,
      "Ġmass": 6176,
      "Ġlin": 6177,
      "Ġanaly": 6178,
      "ĠAP": 6179,
      "Ā}Ā(Ā": 6180,
      "Ġthous": 6181,
      "ĠEach": 6182,
      "stop": 6183,
      "olt": 6184,
      "ĠLear": 6185,
      "verse": 6186,
      "ads": 6187,
      "Ġaspect": 6188,
      "Ġexcellent": 6189,
      "...)": 6190,
      "ĠInt": 6191,
      "Ġparties": 6192,
      "ĠÂ§": 6193,
      "ictor": 6194,
      "ăÂ±ăÂ»ăÂ±ă": 6195,
      "ildren": 6196,
      "bec": 6197,
      "Ġmanu": 6198,
      "Ġembar": 6199,
      "Ġstarting": 6200,
      "pected": 6201,
      "Ġguitar": 6202,
      "Ġbasis": 6203,
      "Ġspeaks": 6204,
      "Ġexplan": 6205,
      "Ġhighly": 6206,
      "tains": 6207,
      "Ġnotebook": 6208,
      "Ġjudge": 6209,
      "Ġeffort": 6210,
      "ographer": 6211,
      "41": 6212,
      "UM": 6213,
      "dl": 6214,
      "gu": 6215,
      "gon": 6216,
      "gent": 6217,
      "would": 6218,
      "ć\"": 6219,
      "Ā.Ā{Ā": 6220,
      "Ġcee": 6221,
      "Ā)Ā.ĀĔ": 6222,
      "Ġfasc": 6223,
      "Ġfashion": 6224,
      "Ġfresh": 6225,
      "Ġdrug": 6226,
      "Ġnee": 6227,
      "omatic": 6228,
      "ĠAB": 6229,
      "iced": 6230,
      "using": 6231,
      "Ġru": 6232,
      "ĠHence": 6233,
      "ĠPituitary": 6234,
      "idents": 6235,
      "ĠVal": 6236,
      "ĠWere": 6237,
      "ĠThank": 6238,
      "Ġroot": 6239,
      "Ġ:ĀĔ": 6240,
      "Ġblow": 6241,
      "EEEE": 6242,
      "ăÂ¸ă-Ā": 6243,
      "Ġstudies": 6244,
      "Ġtelling": 6245,
      "Ġcontinues": 6246,
      "Ġlights": 6247,
      "Ġpainting": 6248,
      "Ġelements": 6249,
      "Ġplanning": 6250,
      "Ġphotograph": 6251,
      "achel": 6252,
      "Ġpieces": 6253,
      "Ġtechnical": 6254,
      "Ġcontexts": 6255,
      "ĠConstitution": 6256,
      "Ġreduce": 6257,
      "Ġsynony": 6258,
      "Ġpersu": 6259,
      "Ġsavings": 6260,
      "Ġ(Â©)": 6261,
      "Ġwebsite": 6262,
      "38": 6263,
      "EF": 6264,
      "We": 6265,
      "lan": 6266,
      "mosp": 6267,
      "person": 6268,
      "uable": 6269,
      "wards": 6270,
      "Ġcath": 6271,
      "Ġpig": 6272,
      "Ġfat": 6273,
      "omas": 6274,
      "Ġiin": 6275,
      "ĠMach": 6276,
      "ĠBill": 6277,
      "Ġforces": 6278,
      "ĠLong": 6279,
      "ĠLord": 6280,
      "Ġstr": 6281,
      "Ġstorm": 6282,
      "Ġunne": 6283,
      "Ġagreed": 6284,
      "ăÂ¯ăÂ±ă:Ā": 6285,
      "Ġtrack": 6286,
      "Ġsail": 6287,
      "Ġcheese": 6288,
      "ĠIslands": 6289,
      "Ġenthus": 6290,
      "Ġconstant": 6291,
      "Ġproduction": 6292,
      "byter": 6293,
      "Ġteachers": 6294,
      "Ġsigned": 6295,
      "Ġfailed": 6296,
      "Ġsuffer": 6297,
      "Ġhealthcare": 6298,
      "market": 6299,
      "known": 6300,
      "ĠPoland": 6301,
      "Ġhighest": 6302,
      "Ġreligious": 6303,
      "Ġenthusi": 6304,
      "+;": 6305,
      "?.": 6306,
      "col": 6307,
      "ky": 6308,
      "Ā,Ā]Ā": 6309,
      "Ġwild": 6310,
      "Ġdirty": 6311,
      "Ġled": 6312,
      "Ġnation": 6313,
      "Ā}Ā<Ā": 6314,
      "etic": 6315,
      "ĠWales": 6316,
      "ĠMiss": 6317,
      "Ġ|...": 6318,
      "ĠLabor": 6319,
      "ĠDu": 6320,
      "Ġheav": 6321,
      "Ġneutral": 6322,
      "Ġvvh": 6323,
      "Ġarrest": 6324,
      "Ġclock": 6325,
      "ferences": 6326,
      "Ġcolony": 6327,
      "Ġsmile": 6328,
      "ibly": 6329,
      "Ġgovernor": 6330,
      "Ġapart": 6331,
      "Ġloan": 6332,
      "Ġ)Ā.Ā]Ā": 6333,
      "Ġforest": 6334,
      "Ġequal": 6335,
      "ĠProt": 6336,
      "Ġaccepted": 6337,
      "Ġappearance": 6338,
      "Ġpreparing": 6339,
      "ĠStudy": 6340,
      "Ġopportunity": 6341,
      "Ġadminist": 6342,
      "Ġdropped": 6343,
      "Ġchallenging": 6344,
      "alysis": 6345,
      "Ă[ĂÂ¸ă": 6346,
      "36": 6347,
      "HT": 6348,
      "arent": 6349,
      "dis": 6350,
      "father": 6351,
      "lv": 6352,
      "made": 6353,
      "vant": 6354,
      "when": 6355,
      "zo": 6356,
      "Ā)Ā)Ā,Ā": 6357,
      "inations": 6358,
      "Ġsli": 6359,
      "Ġpounds": 6360,
      "Ġbod": 6361,
      "ăÂĮĂ": 6362,
      "ators": 6363,
      "Ġmur": 6364,
      "Ġhom": 6365,
      "ĠIh": 6366,
      "ĠAcc": 6367,
      "ask": 6368,
      "lection": 6369,
      "ĠMet": 6370,
      "ĠPers": 6371,
      "ĠOO": 6372,
      "ĠElementary": 6373,
      "ĠLa": 6374,
      "ulf": 6375,
      "ÉĻd": 6376,
      "Ġability": 6377,
      "iving": 6378,
      "ager": 6379,
      "Ġimpl": 6380,
      "Ġcompos": 6381,
      "izes": 6382,
      "ARA": 6383,
      "Ġcentral": 6384,
      "Ġdrain": 6385,
      "Ġ..............................": 6386,
      "Ġincreasing": 6387,
      "Ġedge": 6388,
      "ĠĀÂ¸ăÂŃă": 6389,
      "Ġdamaged": 6390,
      "ĠCalif": 6391,
      "Ġapologise": 6392,
      "Ġmovie": 6393,
      "Ġeggs": 6394,
      "Ġbudget": 6395,
      "Ġcelebr": 6396,
      "Ġfestival": 6397,
      "ĠBecause": 6398,
      "/-": 6399,
      "80": 6400,
      "AG": 6401,
      "fet": 6402,
      "kd": 6403,
      "noun": 6404,
      "pret": 6405,
      "rough": 6406,
      "there": 6407,
      "Â¶": 6408,
      "ĠĀ<\"": 6409,
      "Ā.Ā]Āę": 6410,
      "Ġax": 6411,
      "Ġsides": 6412,
      "Ġcake": 6413,
      "atoes": 6414,
      "Ġmort": 6415,
      "Ġlink": 6416,
      "ĠTest": 6417,
      "ĠSi": 6418,
      "ĠScience": 6419,
      "ĠĀĕğ": 6420,
      "Ġbeat": 6421,
      "ĠHot": 6422,
      "ĠNat": 6423,
      "ĠRachel": 6424,
      "Ġatmosp": 6425,
      "ăÂ»ăÂ¯ăÂ±ă": 6426,
      "this": 6427,
      "Ġunusual": 6428,
      "Ġlibr": 6429,
      "ĠHello": 6430,
      "ĠEngine": 6431,
      "Ġspread": 6432,
      "Ġspoke": 6433,
      "Ġputting": 6434,
      "Ġminute": 6435,
      "ĠĀĄğÂ»ă": 6436,
      "Ġprior": 6437,
      "Ġclasses": 6438,
      "ĠÐ°": 6439,
      "Ġeditor": 6440,
      "Ġcauses": 6441,
      "Ġessential": 6442,
      "Ġregularly": 6443,
      "Ġprepared": 6444,
      "Ġencou": 6445,
      "Ġprimary": 6446,
      "ĠRemember": 6447,
      "Ġcompetition": 6448,
      "Ġdentist": 6449,
      "57": 6450,
      "91": 6451,
      "Al": 6452,
      "CK": 6453,
      "How": 6454,
      "cis": 6455,
      "iw": 6456,
      "lie": 6457,
      "nat": 6458,
      "rical": 6459,
      "uu": 6460,
      "İĂ": 6461,
      "Ā-Āę": 6462,
      "into": 6463,
      "Ġpn": 6464,
      "Ġbon": 6465,
      "eness": 6466,
      "Ġharm": 6467,
      "ĠTy": 6468,
      "ental": 6469,
      "Ġbear": 6470,
      "ĠHem": 6471,
      "ĠPast": 6472,
      "Ġstage": 6473,
      "ĠDO": 6474,
      "ille": 6475,
      "Ġkinds": 6476,
      "Ġarms": 6477,
      "Ġcloth": 6478,
      "Ġspr": 6479,
      "Ġ104": 6480,
      "Ġagents": 6481,
      "Ġflood": 6482,
      "ăÂ±ăÂ´ă": 6483,
      "Ġtwice": 6484,
      "Ġ120": 6485,
      "ictionaries": 6486,
      "Ġmusical": 6487,
      "Ġproviding": 6488,
      "Ġheadlines": 6489,
      "Ġevidence": 6490,
      "Ġexperien": 6491,
      "Ġboxes": 6492,
      "Ġestate": 6493,
      "Ġoccasion": 6494,
      "ĠAustria": 6495,
      "ĠAfrican": 6496,
      "Ġaffairs": 6497,
      "Ġsoftware": 6498,
      "Ġsilent": 6499,
      "Ġsenses": 6500,
      "ĠWashington": 6501,
      "ĠĀ+Ā-Ā": 6502,
      "Ġquantum": 6503,
      "Ġreported": 6504,
      "Ġpronounced": 6505,
      "Ġprofessional": 6506,
      "Ġbranch": 6507,
      "Ġadvantage": 6508,
      "Ġnarrow": 6509,
      "Ġinfluence": 6510,
      "aign": 6511,
      "gi": 6512,
      "light": 6513,
      "pen": 6514,
      "rant": 6515,
      "two": 6516,
      "vis": 6517,
      "inions": 6518,
      "ĀÂ¿": 6519,
      "ĠIce": 6520,
      "ĠCap": 6521,
      "ĠCON": 6522,
      "ĠHigh": 6523,
      "ĠOri": 6524,
      "Ġupper": 6525,
      "Ġneck": 6526,
      "Ġath": 6527,
      "sses": 6528,
      "Ġconven": 6529,
      "ăÂ¯ăÂ»ăÂ¿ă": 6530,
      "tered": 6531,
      "osop": 6532,
      "asty": 6533,
      "eless": 6534,
      "Ġsearch": 6535,
      "ăÂŃăÂ¿ă": 6536,
      "Ġ132": 6537,
      "Ġ135": 6538,
      "ĠĀÂ»ăÂŃă": 6539,
      "away": 6540,
      "aths": 6541,
      "Ġactually": 6542,
      "Ġattend": 6543,
      "ĠVVhich": 6544,
      "Ġentered": 6545,
      "Ġbuying": 6546,
      "ĠShak": 6547,
      "Ġdepartment": 6548,
      "bye": 6549,
      "Ġfunny": 6550,
      "Ġfalling": 6551,
      "Ġbrothers": 6552,
      "ISH": 6553,
      "ĠRepublic": 6554,
      "ĠEEEE": 6555,
      "ĠĀÂ¸ăÂ·ă": 6556,
      "Ġpetrol": 6557,
      "Ġsources": 6558,
      "Ġforgotten": 6559,
      "<-": 6560,
      "Us": 6561,
      "burg": 6562,
      "cies": 6563,
      "case": 6564,
      "hab": 6565,
      "ÑĤ": 6566,
      "Ġox": 6567,
      "Ġcash": 6568,
      "erous": 6569,
      "erved": 6570,
      "onic": 6571,
      "Ġmal": 6572,
      "Ġhovv": 6573,
      "Ġlad": 6574,
      "Ġlake": 6575,
      "arily": 6576,
      "ĂÂĴĂ(Ā": 6577,
      "Ġnor": 6578,
      "ĠTR": 6579,
      "ĠHon": 6580,
      "Ġhabit": 6581,
      "amber": 6582,
      "ĠDE": 6583,
      "Ā?Ā)Ā.Ā": 6584,
      "Ġextens": 6585,
      "antum": 6586,
      "Ġframe": 6587,
      "Ġunivers": 6588,
      "Ġplate": 6589,
      "Ġselect": 6590,
      "âĢĿ.": 6591,
      "Ġflag": 6592,
      "Ġseeing": 6593,
      "Ġroy": 6594,
      "Ġ129": 6595,
      "Ġcorrespond": 6596,
      "Ġholidays": 6597,
      "Ġterritory": 6598,
      "ĠIsland": 6599,
      "Ġactions": 6600,
      "Ġpolic": 6601,
      "Ġfinancial": 6602,
      "Ġprovides": 6603,
      "Ġenjoying": 6604,
      "ĠCollo": 6605,
      "Ġcommonly": 6606,
      "ground": 6607,
      "ĀÂĴ!": 6608,
      "ĠDece": 6609,
      "Ġconcent": 6610,
      "Ġparking": 6611,
      "Ġ1933": 6612,
      "ĠĀ-ĀÂĥĂ": 6613,
      "ĠPerhaps": 6614,
      "Ġdegrees": 6615,
      "ĠRussian": 6616,
      "ĠDutch": 6617,
      "Ġaccommodation": 6618,
      "Ġunnecessary": 6619,
      "**": 6620,
      "ares": 6621,
      "bet": 6622,
      "ev": 6623,
      "free": 6624,
      "rad": 6625,
      "wh": 6626,
      "word": 6627,
      "āĆă": 6628,
      "Ā,Ā{Ā": 6629,
      "Ā'Ā)Ā.Ā": 6630,
      "Ġtong": 6631,
      "ĠĀ-Āēā": 6632,
      "Ġoon": 6633,
      "itic": 6634,
      "Ġemer": 6635,
      "Ġlic": 6636,
      "ĠIhave": 6637,
      "ĠWE": 6638,
      "ĠBE": 6639,
      "oli": 6640,
      "chi": 6641,
      "ĠNOT": 6642,
      "urb": 6643,
      "verbs": 6644,
      "ĠRiver": 6645,
      "ĠFed": 6646,
      "Ġworried": 6647,
      "Ġjew": 6648,
      "oses": 6649,
      "ĠItis": 6650,
      "Ġquar": 6651,
      "plane": 6652,
      "Ġ106": 6653,
      "Ġ108": 6654,
      "formation": 6655,
      "Ġkeen": 6656,
      "Ġreply": 6657,
      "Ġfeatures": 6658,
      "Ġpassport": 6659,
      "ĠAssociate": 6660,
      "Ġguide": 6661,
      "Ġsurround": 6662,
      "ĠConference": 6663,
      "Ġmedicine": 6664,
      "ervation": 6665,
      "Ġoperation": 6666,
      "Ġmajority": 6667,
      "Ġappointed": 6668,
      "Ġpermission": 6669,
      "Ġnuts": 6670,
      "Ġskiing": 6671,
      "Ġcovered": 6672,
      "Qr": 6673,
      "bad": 6674,
      "cor": 6675,
      "ji": 6676,
      "lat": 6677,
      "nan": 6678,
      "phen": 6679,
      "zes": 6680,
      "Ā)Ā(Ā": 6681,
      "Ā/Ā-Ā.Ā": 6682,
      "Ġavery": 6683,
      "Ġavvay": 6684,
      "Ġow": 6685,
      "Ġwo": 6686,
      "Ġther": 6687,
      "Ġpup": 6688,
      "ĠĀÂķ": 6689,
      "Ġfro": 6690,
      "organ": 6691,
      "ĂÂĥĂÂĬĂ": 6692,
      "Ġglo": 6693,
      "ĠSep": 6694,
      "oty": 6695,
      "ĠMac": 6696,
      "ĠMusic": 6697,
      "Ġvir": 6698,
      "ĠOver": 6699,
      "olar": 6700,
      "Ġstamp": 6701,
      "urt": 6702,
      "ĠFree": 6703,
      "Ġworst": 6704,
      "istance": 6705,
      "aches": 6706,
      "Ġflr": 6707,
      "rance": 6708,
      "Ġnose": 6709,
      "Ġ111": 6710,
      "izing": 6711,
      "RRT": 6712,
      "Ġaccused": 6713,
      "bey": 6714,
      "Ġemp": 6715,
      "Ġparticles": 6716,
      "Ġapartment": 6717,
      "Ġglob": 6718,
      "Ġshowing": 6719,
      "ĀÂĴĂÂĬĂ": 6720,
      "ĠLeft": 6721,
      "Ġtaxes": 6722,
      "Ġfourth": 6723,
      "Ġtreated": 6724,
      "ĠSov": 6725,
      "Ġsalt": 6726,
      "Ġequival": 6727,
      "Ġincor": 6728,
      "Ġincome": 6729,
      "ĠAustralian": 6730,
      "ĠRepresent": 6731,
      "Ġmeasures": 6732,
      "Ġilleg": 6733,
      "Ġwatched": 6734,
      "ğāă": 6735,
      "ĠPacific": 6736,
      "-;": 6737,
      ">.": 6738,
      "AV": 6739,
      "cnt": 6740,
      "fu": 6741,
      "fied": 6742,
      "nc": 6743,
      "Ā+Ā": 6744,
      "reas": 6745,
      "Ġcoun": 6746,
      "Ġwi": 6747,
      "Ġben": 6748,
      "Ġfee": 6749,
      "Ġfra": 6750,
      "Ġhall": 6751,
      "Ġlying": 6752,
      "Ġnavy": 6753,
      "Ġgames": 6754,
      "aste": 6755,
      "vey": 6756,
      "ĠWord": 6757,
      "Ġ|)": 6758,
      "ĠPa": 6759,
      "ĠLo": 6760,
      "amic": 6761,
      "ĠDear": 6762,
      "opp": 6763,
      "Ġmechan": 6764,
      "teen": 6765,
      "Ġunhappy": 6766,
      "ievv": 6767,
      "ERA": 6768,
      "Ġ114": 6769,
      "Ġbreaking": 6770,
      "Ġearn": 6771,
      "ĠĀÂĥĂ[Ă": 6772,
      "Ġpayment": 6773,
      "INE": 6774,
      "Ġcurren": 6775,
      "Ġcutting": 6776,
      "Ġgeneration": 6777,
      "Ġcream": 6778,
      "Ġannoy": 6779,
      "Ġcalm": 6780,
      "Ġtickets": 6781,
      "Ġclimate": 6782,
      "Ġcampaign": 6783,
      "Ġgradually": 6784,
      "Ġvessels": 6785,
      "Ġcitiz": 6786,
      "Ġliquid": 6787,
      "ĠLibrary": 6788,
      "Ġbottom": 6789,
      "ĠĀÂ¶ăÃ·ğÂ¿ă": 6790,
      "61": 6791,
      "fit": 6792,
      "pÉĻ": 6793,
      "rum": 6794,
      "ĠÃ¶": 6795,
      "het": 6796,
      "heres": 6797,
      "inal": 6798,
      "Ġsen": 6799,
      "Ġod": 6800,
      "Ġcen": 6801,
      "erate": 6802,
      "Ġwake": 6803,
      "Ġbother": 6804,
      "ani": 6805,
      "Ā!Ā!Ā": 6806,
      "ĠTH": 6807,
      "Ġ(Â§": 6808,
      "uset": 6809,
      "ĠWork": 6810,
      "Ġrang": 6811,
      "ĠPet": 6812,
      "ĠEduc": 6813,
      "chant": 6814,
      "Ġstressed": 6815,
      "ades": 6816,
      "hers": 6817,
      "Ġexcess": 6818,
      "Ġwaste": 6819,
      "Ġje": 6820,
      "Ġsheep": 6821,
      "ĠThomas": 6822,
      "Ġknock": 6823,
      "Ġ109": 6824,
      "Ġcolors": 6825,
      "Ġ138": 6826,
      "Ġaircraft": 6827,
      "ERERR": 6828,
      "Ġcere": 6829,
      "Ġfreezing": 6830,
      "Ġmarks": 6831,
      "Ġerr": 6832,
      "Ġmedia": 6833,
      "Ġwheel": 6834,
      "ĀÂ¯ăÂ±ă,Ā": 6835,
      "Ġphotos": 6836,
      "ĠSecret": 6837,
      "Ġlargest": 6838,
      "Ġprincipal": 6839,
      "ĠSmith": 6840,
      "ĠColloq": 6841,
      "ĠDecember": 6842,
      "59": 6843,
      "Af": 6844,
      "ients": 6845,
      "point": 6846,
      "rass": 6847,
      "ya": 6848,
      "|-": 6849,
      "ĠĀ\\Ă": 6850,
      "Ā'Āę": 6851,
      "Ġack": 6852,
      "onse": 6853,
      "Ġpitch": 6854,
      "Ā!Ā)Ā.Ā": 6855,
      "ĠAL": 6856,
      "Ā}ĀÂĩ\"": 6857,
      "sect": 6858,
      "Ġstru": 6859,
      "Ġstrict": 6860,
      "ĠDis": 6861,
      "eek": 6862,
      "ĠRoyal": 6863,
      "ĠJose": 6864,
      "unction": 6865,
      "ă-Ā)Ā": 6866,
      "Ġunemploy": 6867,
      "vvith": 6868,
      "Ġ1914": 6869,
      "alking": 6870,
      "Ġthinks": 6871,
      "Ġresour": 6872,
      "Ġboat": 6873,
      "Ġdesk": 6874,
      "ĠJoh": 6875,
      "Ġmoon": 6876,
      "Ġvari": 6877,
      "Ġrestaurants": 6878,
      "Ġfully": 6879,
      "Ġclothing": 6880,
      "Ġexciting": 6881,
      "Ġtopic": 6882,
      "Ġsleeping": 6883,
      "Ġcarrying": 6884,
      "ĠLucy": 6885,
      "ĠOxford": 6886,
      "ĠSoviet": 6887,
      "))": 6888,
      "IV": 6889,
      "gage": 6890,
      "part": 6891,
      "pass": 6892,
      "run": 6893,
      "war": 6894,
      "Ā.Ā.Ā)Ā,Ā": 6895,
      "Ā>Ā.Ā.Ā.Ā": 6896,
      "Ġtt": 6897,
      "Ġcous": 6898,
      "Ġmand": 6899,
      "ĠĂ-Ā": 6900,
      "Ġlu": 6901,
      "Ġlaz": 6902,
      "Ġtooth": 6903,
      "ĠCr": 6904,
      "Ġrul": 6905,
      "Ġrisk": 6906,
      "ĠMP": 6907,
      "ĠHovv": 6908,
      "Ġrele": 6909,
      "ĠPd": 6910,
      "ĠEe": 6911,
      "ĠTheir": 6912,
      "ros": 6913,
      "ĠYe": 6914,
      "Ġmel": 6915,
      "Ġ00": 6916,
      "lii": 6917,
      "ritten": 6918,
      "Ġaccom": 6919,
      "Ġacademic": 6920,
      "Ġremark": 6921,
      "Ġsetting": 6922,
      "Ġfollows": 6923,
      "Ġconstruction": 6924,
      "Ġartific": 6925,
      "Ġopening": 6926,
      "Ġpainted": 6927,
      "Ġdiag": 6928,
      "Ġvariety": 6929,
      "ĠBefore": 6930,
      "Ġcertainly": 6931,
      "Ġsociety": 6932,
      "Ġmissing": 6933,
      "Ġrequire": 6934,
      "Ġlabor": 6935,
      "Ġapproach": 6936,
      "ĠPresbyter": 6937,
      "Ġaudience": 6938,
      "Ġwrote": 6939,
      "Ġpredict": 6940,
      "Ġfascinating": 6941,
      "Ġatmosphere": 6942,
      "Ġroyal": 6943,
      "/,": 6944,
      "44": 6945,
      "cif": 6946,
      "fÉĻ": 6947,
      "hold": 6948,
      "lm": 6949,
      "pes": 6950,
      "sÉĻ": 6951,
      "tion": 6952,
      "Ă{Ā": 6953,
      "ĠĀć\"": 6954,
      "Ā>Ā)Ā:Ā": 6955,
      "Ā>Āē": 6956,
      "Ġsss": 6957,
      "Ġsac": 6958,
      "Ġwid": 6959,
      "Ġbatter": 6960,
      "Ġdies": 6961,
      "Ġnorthern": 6962,
      "ĠTable": 6963,
      "Ġreached": 6964,
      "ĠPen": 6965,
      "ĠOb": 6966,
      "ĠBay": 6967,
      "imum": 6968,
      "verage": 6969,
      "ĠRom": 6970,
      "ulate": 6971,
      "Ā?Ā]Ā": 6972,
      "Ġexhib": 6973,
      "Ġchat": 6974,
      "ğÂ¯": 6975,
      "Ġanywhere": 6976,
      "bered": 6977,
      "ART": 6978,
      "Ġopinions": 6979,
      "Ġconsists": 6980,
      "Ġlearnt": 6981,
      "ĠÉĻÉĻ": 6982,
      "Ġdistrict": 6983,
      "Ġextract": 6984,
      "standing": 6985,
      "Ġheadache": 6986,
      "Ġglad": 6987,
      "ĠCompany": 6988,
      "Ġsubjects": 6989,
      "Ġ1931": 6990,
      "Ġsupermarket": 6991,
      "Ġmissed": 6992,
      "Ġassociations": 6993,
      "Ġbecoming": 6994,
      "Ġansvvers": 6995,
      "Ġtiny": 6996,
      "Ġmillion": 6997,
      "ĠLouis": 6998,
      "ĠMiddle": 6999,
      "Ġvowel": 7000,
      "Ġnearest": 7001,
      "AWN": 7002,
      "Sr": 7003,
      "iU": 7004,
      "mit": 7005,
      "minded": 7006,
      "nic": 7007,
      "rv": 7008,
      "try": 7009,
      "yer": 7010,
      "Āăă": 7011,
      "Ġaid": 7012,
      "Ġbin": 7013,
      "Ġble": 7014,
      "ati": 7015,
      "orter": 7016,
      "Ġlif": 7017,
      "eded": 7018,
      "etc": 7019,
      "Ġris": 7020,
      "ĠPark": 7021,
      "ĠOU": 7022,
      "ĠElect": 7023,
      "stood": 7024,
      "stud": 7025,
      "ĠBul": 7026,
      "ĠBib": 7027,
      "ĠDirect": 7028,
      "ilty": 7029,
      "irr": 7030,
      "irs": 7031,
      "aded": 7032,
      "Ġitis": 7033,
      "ĠFar": 7034,
      "abilities": 7035,
      "Ġcomments": 7036,
      "esses": 7037,
      "umed": 7038,
      "Ġplump": 7039,
      "agraph": 7040,
      "ĠWhile": 7041,
      "Ġvvant": 7042,
      "Ġ105": 7043,
      "icken": 7044,
      "cles": 7045,
      "RRR": 7046,
      "ğÂ»ăÂ»ăÂ¿ă": 7047,
      "Ġimpro": 7048,
      "Ġended": 7049,
      "manent": 7050,
      "Ġrooms": 7051,
      "190": 7052,
      "Ġswitch": 7053,
      "Ġ**": 7054,
      "Ġshowed": 7055,
      "portant": 7056,
      "Ġeasier": 7057,
      "Ġdipl": 7058,
      "Ġ.....................................": 7059,
      "Ġrefuse": 7060,
      "Ġinside": 7061,
      "Ġdivision": 7062,
      "break": 7063,
      "Ġsisters": 7064,
      "Ġdirectly": 7065,
      "aaaaaaaa": 7066,
      "Ġcolonial": 7067,
      "Ġorders": 7068,
      "Ġawful": 7069,
      "Ġidentity": 7070,
      "Ġsusp": 7071,
      "Ġdialog": 7072,
      "Ġbreath": 7073,
      "Ġlonely": 7074,
      "Ġwliich": 7075,
      "Ġcotton": 7076,
      "Ġdistinguished": 7077,
      "Ġmanufact": 7078,
      "usetts": 7079,
      "MM": 7080,
      "MP": 7081,
      "dy": 7082,
      "dÄ±": 7083,
      "nu": 7084,
      "ox": 7085,
      "xious": 7086,
      "ĠĀăā": 7087,
      "Ġtail": 7088,
      "Ā)Ā.Ā)Ā": 7089,
      "Ġci": 7090,
      "Ġcart": 7091,
      "ero": 7092,
      "ĠĀÂĬĂ": 7093,
      "Ġfing": 7094,
      "iti": 7095,
      "anas": 7096,
      "ora": 7097,
      "Ġdie": 7098,
      "Ġdance": 7099,
      "Ġdomin": 7100,
      "Ġner": 7101,
      "Ġrout": 7102,
      "Ġreject": 7103,
      "ĠED": 7104,
      "rier": 7105,
      "ĠNa": 7106,
      "ura": 7107,
      "verb": 7108,
      "adian": 7109,
      "Ġitem": 7110,
      "acing": 7111,
      "quer": 7112,
      "Ġdelic": 7113,
      "Ġ[]": 7114,
      "Ġalp": 7115,
      "Ġchips": 7116,
      "Ġsofa": 7117,
      "Ġenem": 7118,
      "Ġetym": 7119,
      "Ġ103": 7120,
      "Ġcarbon": 7121,
      "Ġcontain": 7122,
      "Ġprepositions": 7123,
      "Ġ)Ā:Ā": 7124,
      "Ġ116": 7125,
      "Ġ118": 7126,
      "Ā-Ā)Ā:Ā": 7127,
      "ension": 7128,
      "bell": 7129,
      "Ġweekends": 7130,
      "poses": 7131,
      "Ġmetres": 7132,
      "Ġopposed": 7133,
      "ĠAssoci": 7134,
      "Ġloves": 7135,
      "ĠAtl": 7136,
      "Ġnegoti": 7137,
      "Ġlaunch": 7138,
      "hemat": 7139,
      "Ġorganized": 7140,
      "Ġconcern": 7141,
      "Ġwindows": 7142,
      "ribly": 7143,
      "Ġpleased": 7144,
      "Ġhistorical": 7145,
      "Ġtravelled": 7146,
      "Ġportion": 7147,
      "ĠConsciousness": 7148,
      "Ġresponsible": 7149,
      "Ġliterature": 7150,
      "Ġprefix": 7151,
      "Ġcasual": 7152,
      "ĠSupplementary": 7153,
      "ĠDepartment": 7154,
      "Ġcandid": 7155,
      "From": 7156,
      "OD": 7157,
      "Sh": 7158,
      "cf": 7159,
      "ea": 7160,
      "give": 7161,
      "jus": 7162,
      "pri": 7163,
      "ÓĻ": 7164,
      "Ġ`": 7165,
      "ĠĀ(Ā&Ā": 7166,
      "ouds": 7167,
      "Ġfancy": 7168,
      "Ġfalse": 7169,
      "Ġmood": 7170,
      "oro": 7171,
      "Ġded": 7172,
      "Ġ77777": 7173,
      "ĠSH": 7174,
      "Ġrr": 7175,
      "utive": 7176,
      "Ġorn": 7177,
      "ĠHy": 7178,
      "ĠPass": 7179,
      "ĠNaut": 7180,
      "iry": 7181,
      "race": 7182,
      "pping": 7183,
      "Ġjib": 7184,
      "Ġunc": 7185,
      "Ġplat": 7186,
      "ĠĀĀğÂ»ă": 7187,
      "asses": 7188,
      "iana": 7189,
      "Ġseemed": 7190,
      "Ġcompuls": 7191,
      "icket": 7192,
      "ĀÂ¿ă-Ā": 7193,
      "Ġcommun": 7194,
      "flict": 7195,
      "ĠExpl": 7196,
      "rophe": 7197,
      "Ġimportance": 7198,
      "Ġexplos": 7199,
      "ĠDevelop": 7200,
      "Ġcaf": 7201,
      "Ġmenu": 7202,
      "Ġleader": 7203,
      "Ġpleasant": 7204,
      "Ġdealing": 7205,
      "Ġfreed": 7206,
      "Ġcolours": 7207,
      "Ġtelephone": 7208,
      "ĠUSA": 7209,
      "ĠConsider": 7210,
      "Ġproposal": 7211,
      "ĠCentral": 7212,
      "ĠSociety": 7213,
      "Ġadiective": 7214,
      "Ġalternative": 7215,
      "ĠMartin": 7216,
      "Ġconsonant": 7217,
      "Â¶Ā": 7218,
      "kal": 7219,
      "pan": 7220,
      "pus": 7221,
      "rot": 7222,
      "ÂĥĂ": 7223,
      "Ġau": 7224,
      "Ā.Ā)Ā]Ā.Ā": 7225,
      "Ġsoup": 7226,
      "Ġpy": 7227,
      "Ġpath": 7228,
      "oric": 7229,
      "omy": 7230,
      "Ġgrey": 7231,
      "Ā}Ā)Ā,Ā": 7232,
      "ĠMount": 7233,
      "Ġbeg": 7234,
      "ows": 7235,
      "ĠERE": 7236,
      "ĠEERE": 7237,
      "ĠBible": 7238,
      "ĠDi": 7239,
      "ĠDel": 7240,
      "ĠGU": 7241,
      "ĠGive": 7242,
      "Ġatoms": 7243,
      "ĠJe": 7244,
      "Ġconcept": 7245,
      "Ġmeant": 7246,
      "Ġgoals": 7247,
      "Ġfridge": 7248,
      "ĠThus": 7249,
      "ăÂŃăÂ±ă": 7250,
      "bery": 7251,
      "Ġ113": 7252,
      "ăÂ¿ăÂ´ăÂ¿ă": 7253,
      "Ġ.................": 7254,
      "Ġemph": 7255,
      "Ġ142": 7256,
      "Ġparticle": 7257,
      "ĠExc": 7258,
      "Ġdepart": 7259,
      "Ġsolve": 7260,
      "Ġcaught": 7261,
      "Ġparagraph": 7262,
      "Ġsignific": 7263,
      "prov": 7264,
      "icycle": 7265,
      "ĠArchaic": 7266,
      "Ġpackage": 7267,
      "Ġtourists": 7268,
      "ĠQuantum": 7269,
      "Ġpraise": 7270,
      "Ġindicate": 7271,
      "ĠJustice": 7272,
      "Ġratified": 7273,
      "Ġsucceeded": 7274,
      "Ġconstitutional": 7275,
      "ĠMassach": 7276,
      "Ġdestroyed": 7277,
      "Ġdefeated": 7278,
      "Ġdispute": 7279,
      "Ġchurches": 7280,
      "ĠĀÂķă": 7281,
      "'^": 7282,
      "63": 7283,
      ":'": 7284,
      ">-": 7285,
      "AW": 7286,
      "CI": 7287,
      "Did": 7288,
      "Tz": 7289,
      "cher": 7290,
      "iT": 7291,
      "ris": 7292,
      "ws": 7293,
      "yond": 7294,
      "Ġahead": 7295,
      "Ġou": 7296,
      "onder": 7297,
      "Ġba": 7298,
      "itable": 7299,
      "Ġmut": 7300,
      "oring": 7301,
      "ĂÂ¸": 7302,
      "ĠTell": 7303,
      "ĠSan": 7304,
      "Ġvo": 7305,
      "Ġvide": 7306,
      "ĠHas": 7307,
      "Ġreception": 7308,
      "ĠPM": 7309,
      "ĠPan": 7310,
      "ĠOff": 7311,
      "ĠEven": 7312,
      "ste": 7313,
      "ĠFocus": 7314,
      "abel": 7315,
      "Ġko": 7316,
      "iform": 7317,
      "ores": 7318,
      "ĠVOU": 7319,
      "Ġtears": 7320,
      "Ä±Ä±": 7321,
      "Ġdisaster": 7322,
      "Ġapple": 7323,
      "Ġ123": 7324,
      "EES": 7325,
      "ĠĀÂ´ăÂ±ă": 7326,
      "Ġmarriage": 7327,
      "Ġconstitu": 7328,
      "doing": 7329,
      "ĀÂŃăÂ»ăÂ±ă": 7330,
      "Ġcece": 7331,
      "ĠProv": 7332,
      "Ġ.......": 7333,
      "Ġreflect": 7334,
      "Ġstatement": 7335,
      "Ġvaluable": 7336,
      "Ġmedium": 7337,
      "Ġstream": 7338,
      "Ġstreets": 7339,
      "ĠPeace": 7340,
      "Ġsigns": 7341,
      "Ġbrief": 7342,
      "ographical": 7343,
      "Ġpleasure": 7344,
      "ĠEmily": 7345,
      "Ġcustoms": 7346,
      "Ġfaith": 7347,
      "Ġlarger": 7348,
      "Ġprinted": 7349,
      "ĠJulia": 7350,
      "ĠRichard": 7351,
      "ĠSecretary": 7352,
      "51": 7353,
      "500": 7354,
      "88": 7355,
      "AK": 7356,
      "Ch": 7357,
      "Sc": 7358,
      "TE": 7359,
      "dri": 7360,
      "ey": 7361,
      "kÉĻ": 7362,
      "sit": 7363,
      "win": 7364,
      "Ġought": 7365,
      "Ġfan": 7366,
      "Ġees": 7367,
      "asa": 7368,
      "ĠCape": 7369,
      "ĠLike": 7370,
      "ĠLiber": 7371,
      "tery": 7372,
      "ĠGl": 7373,
      "Ġshape": 7374,
      "illa": 7375,
      "Ġclouds": 7376,
      "liz": 7377,
      "ĠThree": 7378,
      "Ġ128": 7379,
      "Ġcheaper": 7380,
      "Ġscale": 7381,
      "Ġguilty": 7382,
      "Ġescape": 7383,
      "ĠAsk": 7384,
      "Ġcell": 7385,
      "Ġcharity": 7386,
      "Ġvisited": 7387,
      "Ġtreatment": 7388,
      "useum": 7389,
      "Ġprotection": 7390,
      "ĠPremier": 7391,
      "Ġdefinite": 7392,
      "Ġseriously": 7393,
      "Ġirrit": 7394,
      "Ġlmages": 7395,
      "ĠAgricult": 7396,
      "ĠChristmas": 7397,
      "Ġclaims": 7398,
      "Ġsubstance": 7399,
      "Ġprepare": 7400,
      "Ġscientific": 7401,
      "Ġculture": 7402,
      "Ġadvertise": 7403,
      "Ġdoubt": 7404,
      "Ġservices": 7405,
      "Ġaccurate": 7406,
      "Ġembarrass": 7407,
      "Ġartificial": 7408,
      "71": 7409,
      "At": 7410,
      "NO": 7411,
      "aU": 7412,
      "bish": 7413,
      "cut": 7414,
      "feel": 7415,
      "kÉĻn": 7416,
      "lng": 7417,
      "lative": 7418,
      "nin": 7419,
      "nii": 7420,
      "ply": 7421,
      "tan": 7422,
      "uce": 7423,
      "ĠĀ$": 7424,
      "Ġtru": 7425,
      "Ġsorts": 7426,
      "Ġwave": 7427,
      "Ġfiction": 7428,
      "Ġmaster": 7429,
      "Ġmaths": 7430,
      "Ġecc": 7431,
      "Ġly": 7432,
      "ĠSem": 7433,
      "ĠSoph": 7434,
      "lem": 7435,
      "ĠWestern": 7436,
      "Ġrum": 7437,
      "Ġrush": 7438,
      "ĠHug": 7439,
      "Ġ|.": 7440,
      "ĠEconom": 7441,
      "rie": 7442,
      "Ġwithdra": 7443,
      "ĠFour": 7444,
      "Ġconflict": 7445,
      "Ġjus": 7446,
      "ĀÂĥĂ\\Ă": 7447,
      "people": 7448,
      "Ġdemon": 7449,
      "Ġund": 7450,
      "Ġpros": 7451,
      "ĠIns": 7452,
      "ours": 7453,
      "Ġpartner": 7454,
      "Ġ125": 7455,
      "Ġ126": 7456,
      "cont": 7457,
      "ATES": 7458,
      "Ġplayers": 7459,
      "Ġterribly": 7460,
      "Ġfeels": 7461,
      "Ġadjust": 7462,
      "nnnnnn": 7463,
      "ĠReg": 7464,
      "Ġassistant": 7465,
      "ĠUsing": 7466,
      "ĠExpress": 7467,
      "Ġlisted": 7468,
      "Ġ......": 7469,
      "grad": 7470,
      "Ġtrial": 7471,
      "Ġsuggestions": 7472,
      "ĠBegin": 7473,
      "Ġ......................................": 7474,
      "Ġcrimin": 7475,
      "Ġgirls": 7476,
      "Ġtransfer": 7477,
      "Ġprescri": 7478,
      "Ġleading": 7479,
      "proof": 7480,
      "Ġchemistry": 7481,
      "iliar": 7482,
      "Ġsuffix": 7483,
      "Ġwinds": 7484,
      "Ġdrama": 7485,
      "Ġdramatic": 7486,
      "Ġemotional": 7487,
      "Ġconvention": 7488,
      "ĠSlang": 7489,
      "ĠKey": 7490,
      "Ġfriendships": 7491,
      "ĠĀÂľă": 7492,
      "Ġbelieved": 7493,
      "Ġbottle": 7494,
      "BRWN": 7495,
      "Ġfemale": 7496,
      "Ġfollovving": 7497,
      "Ġexplanation": 7498,
      "Ġpupils": 7499,
      "Ġcurrency": 7500,
      "ĠEducation": 7501,
      "46": 7502,
      "Ar": 7503,
      "HN": 7504,
      "IR": 7505,
      "If": 7506,
      "bro": 7507,
      "ees": 7508,
      "every": 7509,
      "eks": 7510,
      "eared": 7511,
      "jo": 7512,
      "mate": 7513,
      "rine": 7514,
      "vention": 7515,
      "Āğ": 7516,
      "Ā)Ā?Ā": 7517,
      "Ā>ĀÂ": 7518,
      "Ġaz": 7519,
      "inate": 7520,
      "Ġsaving": 7521,
      "Ġov": 7522,
      "Ġcache": 7523,
      "Ġwest": 7524,
      "Ġwives": 7525,
      "Ā)Ā.Ā(Ā": 7526,
      "Ġpu": 7527,
      "Ġfu": 7528,
      "Ġmale": 7529,
      "Ġlug": 7530,
      "ĠTina": 7531,
      "ĠID": 7532,
      "astern": 7533,
      "ĠSay": 7534,
      "ett": 7535,
      "Ġthick": 7536,
      "Ġvac": 7537,
      "ĠPeter": 7538,
      "ĠBer": 7539,
      "ĠList": 7540,
      "aments": 7541,
      "ĠNick": 7542,
      "imately": 7543,
      "ĠRec": 7544,
      "ĠFo": 7545,
      "ocr": 7546,
      "anda": 7547,
      "agues": 7548,
      "Ġarts": 7549,
      "ĠKeep": 7550,
      "Ġ...?": 7551,
      "ĠUnf": 7552,
      "clop": 7553,
      "Ġnoisy": 7554,
      "ăÂ¿ăÂ¯ă": 7555,
      "Ġimpression": 7556,
      "dered": 7557,
      "ĠCanal": 7558,
      "ăÂ´ă.Ā": 7559,
      "Ġpolite": 7560,
      "Ġattitude": 7561,
      "Ġinvented": 7562,
      "ĠĀÂ´ăÂ¿ă": 7563,
      "Ġinterests": 7564,
      "Ġthroughout": 7565,
      "Ġobvious": 7566,
      "ĠSea": 7567,
      "Ġeval": 7568,
      "Ġtempor": 7569,
      "Ġjoke": 7570,
      "Ġ1932": 7571,
      "Ġdesigned": 7572,
      "Ġexception": 7573,
      "Ġpossess": 7574,
      "Ġgrandfather": 7575,
      "Ġintroduced": 7576,
      "Ġcontrovers": 7577,
      "ĠIntegr": 7578,
      "ĠVirgin": 7579,
      "Ġlibrary": 7580,
      "Ġlazy": 7581,
      "76": 7582,
      "Bl": 7583,
      "PE": 7584,
      "UST": 7585,
      "ault": 7586,
      "bri": 7587,
      "haven": 7588,
      "kol": 7589,
      "mother": 7590,
      "uous": 7591,
      "Ãľ": 7592,
      "Ġts": 7593,
      "Ġtast": 7594,
      "Ġtough": 7595,
      "Ġtsp": 7596,
      "Ā.Ā)Āę": 7597,
      "hether": 7598,
      "enen": 7599,
      "Ġfoods": 7600,
      "iser": 7601,
      "ĠlO": 7602,
      "Ā}Ā)Ā.Ā": 7603,
      "lete": 7604,
      "Ġthri": 7605,
      "Ġign": 7606,
      "ĠMc": 7607,
      "ĠMat": 7608,
      "ĠPll": 7609,
      "ĠOo": 7610,
      "ĠBas": 7611,
      "Ġhem": 7612,
      "ado": 7613,
      "Ġweak": 7614,
      "ăÂ»ă-Ā": 7615,
      "Ġshirt": 7616,
      "ĠVictor": 7617,
      "oda": 7618,
      "ĠâĢĶâĢĶâĢĶ": 7619,
      "ĠĀĀğÂ´ă": 7620,
      "Ġ1930": 7621,
      "Ġ115": 7622,
      "ocket": 7623,
      "Ġcommit": 7624,
      "Ġcalls": 7625,
      "Â«.": 7626,
      "Ġadvance": 7627,
      "akespe": 7628,
      "OUN": 7629,
      "Ġrestrict": 7630,
      "Ġcountryside": 7631,
      "Ġguar": 7632,
      "Ā[ā": 7633,
      "okes": 7634,
      "Ġdrawn": 7635,
      "ornia": 7636,
      "Ġmemories": 7637,
      "Ġrealise": 7638,
      "Ġrealised": 7639,
      "Ġsunny": 7640,
      "ĠĂ.Ā.Ā": 7641,
      "Ġproperly": 7642,
      "Ġfailure": 7643,
      "Ġbags": 7644,
      "ăÂ±ăÂ»ăÂ»ă": 7645,
      "Ġresponse": 7646,
      "Ġlimit": 7647,
      "Ġconversations": 7648,
      "Ġdogs": 7649,
      "ĠGreece": 7650,
      "ă(ĀÂ¿ă": 7651,
      "Ġburst": 7652,
      "Ġfigure": 7653,
      "ĠSwed": 7654,
      "----": 7655,
      "looking": 7656,
      "Ġchestnut": 7657,
      "Ġsandw": 7658,
      "Ġtariff": 7659,
      "ĠPhysics": 7660,
      "Ġindependent": 7661,
      "Ġensure": 7662,
      "ĠPortug": 7663,
      "Ġbathroom": 7664,
      "fety": 7665,
      "ĠJoseph": 7666,
      "ĂÂ¸ăÂĮĂ": 7667,
      "49": 7668,
      "Ab": 7669,
      "^.": 7670,
      "fall": 7671,
      "iM": 7672,
      "lish": 7673,
      "Āě": 7674,
      "ğ)Ā": 7675,
      "ĠÃĸ": 7676,
      "Ġsan": 7677,
      "Ġobey": 7678,
      "Ġcate": 7679,
      "Ġcoc": 7680,
      "ĠĀÂĵ": 7681,
      "Ġfol": 7682,
      "Ġhill": 7683,
      "Ġlam": 7684,
      "also": 7685,
      "Āāā.Ā]Ā": 7686,
      "usion": 7687,
      "otes": 7688,
      "ller": 7689,
      "Ġride": 7690,
      "Ġthirty": 7691,
      "ĠMag": 7692,
      "ĠMem": 7693,
      "ĠMax": 7694,
      "ĠMuseum": 7695,
      "âĢĻ:": 7696,
      "Ġ||": 7697,
      "ĠPy": 7698,
      "ĠBur": 7699,
      "ĠBab": 7700,
      "Ġstone": 7701,
      "Ġstead": 7702,
      "iled": 7703,
      "igan": 7704,
      "igration": 7705,
      "ĠFore": 7706,
      "Ġfru": 7707,
      "ums": 7708,
      "umes": 7709,
      "osh": 7710,
      "Ġchann": 7711,
      "Ġliber": 7712,
      "Ġseats": 7713,
      "Ġsevere": 7714,
      "Ġque": 7715,
      "aved": 7716,
      "Ġteen": 7717,
      "Ä±st": 7718,
      "Ġproud": 7719,
      "Ġsafety": 7720,
      "pha": 7721,
      "Ġimpact": 7722,
      "Ġamend": 7723,
      "Ġreserve": 7724,
      "Ġacid": 7725,
      "ARY": 7726,
      "Ġmostly": 7727,
      "Ġbelt": 7728,
      "Ġpresented": 7729,
      "shop": 7730,
      "ANT": 7731,
      "azz": 7732,
      "Ġstops": 7733,
      "ĠShakespe": 7734,
      "ĠEverything": 7735,
      "Ġdescribing": 7736,
      "Ġmedical": 7737,
      "Ġradical": 7738,
      "Ġpersonalized": 7739,
      "ĠDaniel": 7740,
      "Ġselfish": 7741,
      "Ġlevels": 7742,
      "Ġindustrial": 7743,
      "ĠSocial": 7744,
      "Ġcabinet": 7745,
      "Ġkilomet": 7746,
      "Ġstroke": 7747,
      "Ġsections": 7748,
      "ĠCalifornia": 7749,
      "56": 7750,
      "?,": 7751,
      "Am": 7752,
      "VER": 7753,
      "dn": 7754,
      "gor": 7755,
      "iat": 7756,
      "lam": 7757,
      "sn": 7758,
      "uan": 7759,
      "uation": 7760,
      "Āć": 7761,
      "ĠĀ)": 7762,
      "ĠĀ(Ā(Ā": 7763,
      "Ā)Ā{Ā": 7764,
      "Ġpapers": 7765,
      "Ġbicycle": 7766,
      "atus": 7767,
      "Ġdictionaries": 7768,
      "arl": 7769,
      "omer": 7770,
      "Ġ('": 7771,
      "Ġ(âĢĶ": 7772,
      "ĠSud": 7773,
      "ĠWH": 7774,
      "Ġrude": 7775,
      "ĠMO": 7776,
      "ĠPress": 7777,
      "ĠOANA": 7778,
      "ĠBook": 7779,
      "ulpt": 7780,
      "Ġjury": 7781,
      "Ġshovv": 7782,
      "pel": 7783,
      "Ġdept": 7784,
      "allow": 7785,
      "Ġproceed": 7786,
      "ĠVen": 7787,
      "Ġleaf": 7788,
      "riting": 7789,
      "Ġcontent": 7790,
      "Ġcompounds": 7791,
      "need": 7792,
      "oyou": 7793,
      "velt": 7794,
      "Ġeveryday": 7795,
      "Ġhelped": 7796,
      "Ġexpand": 7797,
      "Ġpresentation": 7798,
      "Ġnumerous": 7799,
      "Â±ă-Ā": 7800,
      "Ġmethod": 7801,
      "Ġpasses": 7802,
      "Ġtense": 7803,
      "ONE": 7804,
      "Ġlately": 7805,
      "Ġcontinued": 7806,
      "ĠNext": 7807,
      "Ġorganisation": 7808,
      "Ġresemb": 7809,
      "Ġdebts": 7810,
      "Ġexplained": 7811,
      "Ġburgl": 7812,
      "Ġexisting": 7813,
      "Ġcreative": 7814,
      "friendly": 7815,
      "Ġliterary": 7816,
      "Ġcollection": 7817,
      "Ġcolleagues": 7818,
      "Ġarchitecture": 7819,
      "Ġgovt": 7820,
      "Ġenthusiasm": 7821,
      "Ġacknow": 7822,
      "ĠYeah": 7823,
      "ĠShakespeare": 7824,
      "39": 7825,
      "53": 7826,
      "GE": 7827,
      "SS": 7828,
      "Tl": 7829,
      "gra": 7830,
      "lies": 7831,
      "law": 7832,
      "nm": 7833,
      "tre": 7834,
      "âĤ¬": 7835,
      "Ġ[Ā": 7836,
      "ĠĀ[Ā{Ā": 7837,
      "Ġtre": 7838,
      "Ġtone": 7839,
      "Ġaverage": 7840,
      "Ġovvn": 7841,
      "Ġwins": 7842,
      "Ġbul": 7843,
      "Ġmic": 7844,
      "Ġlan": 7845,
      "Ā!Ā:Ā": 7846,
      "ĠThing": 7847,
      "ĠTues": 7848,
      "asons": 7849,
      "icago": 7850,
      "Ā}ĀÂ": 7851,
      "otion": 7852,
      "ĠCivil": 7853,
      "Ġthunder": 7854,
      "Ġvi": 7855,
      "Ġbeyond": 7856,
      "Ġreli": 7857,
      "ĠData": 7858,
      "ĠNorm": 7859,
      "irl": 7860,
      "ĠGet": 7861,
      "ĠFri": 7862,
      "ăÂ»ă.Ā": 7863,
      "Ġ[.": 7864,
      "Ġliked": 7865,
      "ĠInde": 7866,
      "Ġworkers": 7867,
      "Ġagricult": 7868,
      "âĢĿ,": 7869,
      "Ġpert": 7870,
      "Ġgoodbye": 7871,
      "Ġdislike": 7872,
      "Ġ121": 7873,
      "ĠCanadian": 7874,
      "Ġholding": 7875,
      "Ġdespite": 7876,
      "Ġdifferences": 7877,
      "Ġserve": 7878,
      "OUT": 7879,
      "Ġsupply": 7880,
      "ĠIndust": 7881,
      "Ġfacts": 7882,
      "Ġ....................................": 7883,
      "Ġrefers": 7884,
      "Ġgenerous": 7885,
      "Ġdescription": 7886,
      "Ġopera": 7887,
      "Ġnavig": 7888,
      "Ġsurprising": 7889,
      "Ġhydro": 7890,
      "Ġviolent": 7891,
      "ĠĀ+\"": 7892,
      "Ġlucky": 7893,
      "Ġscientists": 7894,
      "Ġhonest": 7895,
      "Ġcrowded": 7896,
      "Ġsymbols": 7897,
      "Ġfeedback": 7898,
      "Ġglobal": 7899,
      "Ġcitizens": 7900,
      "Ġresources": 7901,
      "Āěā": 7902,
      "72": 7903,
      "Ap": 7904,
      "aot": 7905,
      "cam": 7906,
      "dif": 7907,
      "gies": 7908,
      "rich": 7909,
      "tar": 7910,
      "ubs": 7911,
      "vn": 7912,
      "vard": 7913,
      "via": 7914,
      "wood": 7915,
      "xx": 7916,
      "ĠĀ?": 7917,
      "Ā;Āę": 7918,
      "Ā>Ā,Ā.Ā.Ā": 7919,
      "Ġtag": 7920,
      "Ġtube": 7921,
      "Ġsale": 7922,
      "Ġward": 7923,
      "Ġwestern": 7924,
      "Ġpm": 7925,
      "Ġped": 7926,
      "Ġpour": 7927,
      "oust": 7928,
      "athe": 7929,
      "oral": 7930,
      "Ġdread": 7931,
      "Ġnau": 7932,
      "Ġinj": 7933,
      "ĠIV": 7934,
      "Ġ277": 7935,
      "lyn": 7936,
      "Ġree": 7937,
      "Ġforced": 7938,
      "ĠLiter": 7939,
      "Ġult": 7940,
      "amm": 7941,
      "ĠDem": 7942,
      "Ġheating": 7943,
      "irds": 7944,
      "ador": 7945,
      "ĠRR": 7946,
      "ĠFe": 7947,
      "Ġgoal": 7948,
      "pered": 7949,
      "ă.Ā)Ā": 7950,
      "osc": 7951,
      "Ġ-|-": 7952,
      "Ġcontains": 7953,
      "Ġfright": 7954,
      "ăÂ´ă-Ā,Ā": 7955,
      "Ġacts": 7956,
      "Ġactor": 7957,
      "Ġremo": 7958,
      "Ġfever": 7959,
      "pron": 7960,
      "Ġvvithout": 7961,
      "1931": 7962,
      "Ġdistrib": 7963,
      "Ġ,Ā.Ā.ĀĘ": 7964,
      "ĠAssembly": 7965,
      "minute": 7966,
      "Ġarriving": 7967,
      "Ġbrake": 7968,
      "Ġplanned": 7969,
      "Ġera": 7970,
      "Ġintended": 7971,
      "Ġorganised": 7972,
      "iency": 7973,
      "Ġdefined": 7974,
      "Ġbringing": 7975,
      "Ġcombining": 7976,
      "Ġpackages": 7977,
      "Ġinvolve": 7978,
      "Ġcreating": 7979,
      "Ġtotally": 7980,
      "ĠSpecif": 7981,
      "ĠTurk": 7982,
      "Ġcriticism": 7983,
      "ĠSerb": 7984,
      "ĠNEW": 7985,
      "ĠAlexander": 7986,
      "Ġdeeply": 7987,
      "Ġadiectives": 7988,
      "Ġphilosop": 7989,
      "ĠHotel": 7990,
      "ĠMassachusetts": 7991,
      "ĠUnfortunately": 7992,
      "ĠThings": 7993,
      "43": 7994,
      "52": 7995,
      "86": 7996,
      "94": 7997,
      "Cf": 7998,
      "Can": 7999,
      "LY": 8000,
      "NOW": 8001,
      "UE": 8002,
      "bas": 8003,
      "din": 8004,
      "lif": 8005,
      "sen": 8006,
      "uk": 8007,
      "zed": 8008,
      "ĠÄ±n": 8009,
      "Ā.Ā.Ā?Āę": 8010,
      "Ġsust": 8011,
      "Ġoven": 8012,
      "Ġpure": 8013,
      "oration": 8014,
      "orial": 8015,
      "Ġdan": 8016,
      "ĠeR": 8017,
      "ala": 8018,
      "alities": 8019,
      "Ġgri": 8020,
      "Ġyouth": 8021,
      "ĠMaking": 8022,
      "ĠMember": 8023,
      "Ġbell": 8024,
      "Ġreven": 8025,
      "ĠOe": 8026,
      "chni": 8027,
      "ĠDra": 8028,
      ".........": 8029,
      "verted": 8030,
      "ĠRed": 8031,
      "Ġasc": 8032,
      "thur": 8033,
      "Ġcomfortable": 8034,
      "Ġsup": 8035,
      "Ġdeleg": 8036,
      "Ġalb": 8037,
      "Ġalleg": 8038,
      "Ġ000": 8039,
      "uman": 8040,
      "osis": 8041,
      "Ġchron": 8042,
      "Ġuncle": 8043,
      "Ġprohib": 8044,
      "orted": 8045,
      "ivity": 8046,
      "Ġvvorld": 8047,
      "Ġenorm": 8048,
      "avia": 8049,
      "Ġimplement": 8050,
      "iiii": 8051,
      "Ġ1919": 8052,
      "Ġotherwise": 8053,
      "ĠStart": 8054,
      "Ġgrant": 8055,
      "Ġbuses": 8056,
      "Ġ140": 8057,
      "Ġrelation": 8058,
      "ANE": 8059,
      "Ġtalks": 8060,
      "ifications": 8061,
      "Ġrained": 8062,
      "ĠYesterday": 8063,
      "Ā[Ā'Ā": 8064,
      "Ġowner": 8065,
      "Ġload": 8066,
      "ĠShort": 8067,
      "ĠFrancis": 8068,
      "Ġ............................................": 8069,
      "Ġforecast": 8070,
      "ĠGrand": 8071,
      "ĠAndy": 8072,
      "Ġjoined": 8073,
      "Ġraised": 8074,
      "Ġconfident": 8075,
      "Ġrecommended": 8076,
      "77777": 8077,
      "Ġrequest": 8078,
      "Ġcreated": 8079,
      "Ġautom": 8080,
      "ĠSwit": 8081,
      "Ġsecretary": 8082,
      "Ġ..............": 8083,
      "Ġdeclared": 8084,
      "Ġindicated": 8085,
      "Ġrobbery": 8086,
      "Ġsource": 8087,
      "Ġarrangement": 8088,
      "Ġpreceding": 8089,
      "itutions": 8090,
      "Ġelectricity": 8091,
      "Ġefficient": 8092,
      "Ġdiscover": 8093,
      "Ġinitial": 8094,
      "Ġcancelled": 8095,
      "Ġoblig": 8096,
      "Ġthorough": 8097,
      "Ġtongue": 8098,
      "ĠSeptem": 8099,
      "Ġjeans": 8100,
      "ĠPresbyterian": 8101,
      "ĠAtlantic": 8102,
      "Ġplatform": 8103,
      "?-": 8104,
      "AB": 8105,
      "bid": 8106,
      "fam": 8107,
      "iK": 8108,
      "iN": 8109,
      "iens": 8110,
      "lim": 8111,
      "mÉĻ": 8112,
      "rb": 8113,
      "rin": 8114,
      "write": 8115,
      "zh": 8116,
      "inte": 8117,
      "rehens": 8118,
      "Ġpus": 8119,
      "Ġpurch": 8120,
      "aria": 8121,
      "ĠTrans": 8122,
      "ĠId": 8123,
      "Ā}Ā]Ā": 8124,
      "ĠSection": 8125,
      "Ġrom": 8126,
      "ĠiS": 8127,
      "ĠHIST": 8128,
      "Ġisa": 8129,
      "stra": 8130,
      "Ġstim": 8131,
      "important": 8132,
      "ĠRoose": 8133,
      "Ā>Ā,Ā{Ā": 8134,
      "Ġnecess": 8135,
      "Ġconsequ": 8136,
      "Ġkilled": 8137,
      "ership": 8138,
      "Ġlies": 8139,
      "elve": 8140,
      ".................": 8141,
      "aging": 8142,
      "Ġener": 8143,
      "Ġforming": 8144,
      "Ġ107": 8145,
      "peror": 8146,
      "Ġrole": 8147,
      "Ġapples": 8148,
      "Ġ127": 8149,
      "Ġunderstood": 8150,
      "ăÂ»ăÂ¿ă-Ā": 8151,
      "Ġ150": 8152,
      "Ġscared": 8153,
      "Ġinterpret": 8154,
      "ĠImm": 8155,
      "Ġlists": 8156,
      "fficient": 8157,
      "ĠÐ¾": 8158,
      "Ġadding": 8159,
      "Ġlaugh": 8160,
      "Ġstronger": 8161,
      "Ġrevision": 8162,
      "Ġavo": 8163,
      "Ġclosely": 8164,
      "ĠAgent": 8165,
      "Ġmotion": 8166,
      "Ġwalls": 8167,
      "Ġmiser": 8168,
      "Ġprinciples": 8169,
      "Ġ.........": 8170,
      "Ġrecommendations": 8171,
      "Ġflying": 8172,
      "Ā)Ā)Ā;Ā": 8173,
      "Ġcustomers": 8174,
      "Ġwidely": 8175,
      "Ġregarded": 8176,
      "Ġfairly": 8177,
      "ĠArabic": 8178,
      "clusion": 8179,
      "Ġversion": 8180,
      "Ġfleet": 8181,
      "Ġcrash": 8182,
      "Ġtraditional": 8183,
      "Ġsettled": 8184,
      "ĠRepresentatives": 8185,
      "Ġfreedom": 8186,
      "ĠSophie": 8187,
      "ĠExpressions": 8188,
      "-'": 8189,
      "89": 8190,
      ";.": 8191,
      "Ue": 8192,
      "aid": 8193,
      "cific": 8194,
      "called": 8195,
      "fir": 8196,
      "gment": 8197,
      "hu": 8198,
      "kind": 8199,
      "long": 8200,
      "xl": 8201,
      "Ġooo": 8202,
      "Ġpairs": 8203,
      "ĠĀÂ·ă": 8204,
      "ito": 8205,
      "Ġmail": 8206,
      "Ġmention": 8207,
      "Ġmaker": 8208,
      "isition": 8209,
      "orage": 8210,
      "Ġlapt": 8211,
      "arr": 8212,
      "alle": 8213,
      "icate": 8214,
      "ĠCe": 8215,
      "Ā]Ā.Ā.Ā,Ā": 8216,
      "ĠMor": 8217,
      "ĠMike": 8218,
      "Ġvict": 8219,
      "ĠHaw": 8220,
      "Ġforth": 8221,
      "cho": 8222,
      "ĠDiv": 8223,
      "...........": 8224,
      "ĠNorthern": 8225,
      "ĠYO": 8226,
      "andal": 8227,
      "tell": 8228,
      "Ġplastic": 8229,
      "Ġabol": 8230,
      "Ġvvater": 8231,
      "ccc": 8232,
      "Ġclar": 8233,
      "oston": 8234,
      "Ġspare": 8235,
      "Ġgrate": 8236,
      "formed": 8237,
      "ilding": 8238,
      "neys": 8239,
      "aaaÄ±": 8240,
      "Ġ141": 8241,
      "Ġstudied": 8242,
      "ologist": 8243,
      "Ġdriven": 8244,
      "Ġremem": 8245,
      "axon": 8246,
      "ăÂ¶ăÂ±ă": 8247,
      "Ġbreaks": 8248,
      "Ġcapabilities": 8249,
      "ĠĀ(Ā?Ā)Ā.Ā": 8250,
      "force": 8251,
      "Ġtowns": 8252,
      "Ġbrain": 8253,
      "ĠLeg": 8254,
      "Ġlearners": 8255,
      "Ġstatements": 8256,
      "Ġorganization": 8257,
      "Ġrevolution": 8258,
      "Ġeditors": 8259,
      "Ġofficers": 8260,
      "ĠSecurity": 8261,
      "Ġpurposes": 8262,
      "ilipp": 8263,
      "Ġhorrible": 8264,
      "Ġabsolute": 8265,
      "Ġviews": 8266,
      "ĠĀ(Ā.Ā.Ā)Ā": 8267,
      "Ġrecognized": 8268,
      "Ġ.............": 8269,
      "ĠTurkey": 8270,
      "Ġmathemat": 8271,
      "ĠService": 8272,
      "Ġobserve": 8273,
      "Ġpreparation": 8274,
      "ĠDescri": 8275,
      "Ġfacilities": 8276,
      "Ġprofit": 8277,
      "Ġduties": 8278,
      "Ġrubbish": 8279,
      "Ġrailway": 8280,
      "Ġindependence": 8281,
      "Ġsettlement": 8282,
      "ĠMichael": 8283,
      "ĠAdjectives": 8284,
      "ĠScottish": 8285,
      "Ġaspects": 8286,
      "Ġconcentrate": 8287,
      "Ġequivalent": 8288,
      "ĠJohns": 8289,
      "Ġemphas": 8290,
      "Ġguarant": 8291,
      "Ġkilometres": 8292,
      "ĠTuesday": 8293,
      "ĠHISTOR": 8294,
      "\".": 8295,
      ",-": 8296,
      "<'": 8297,
      "bike": 8298,
      "find": 8299,
      "first": 8300,
      "lis": 8301,
      "md": 8302,
      "pol": 8303,
      "vÉĻ": 8304,
      "ĠÃĩ": 8305,
      "Ġern": 8306,
      "Ġtidy": 8307,
      "Ġaes": 8308,
      "Ġsite": 8309,
      "Ġoa": 8310,
      "Ġcos": 8311,
      "onent": 8312,
      "Ġpil": 8313,
      "Ġfant": 8314,
      "Ġmunic": 8315,
      "Ġeet": 8316,
      "Ġeast": 8317,
      "eses": 8318,
      "Ġinn": 8319,
      "Ġinsect": 8320,
      "ĠAlp": 8321,
      "Ġgap": 8322,
      "ication": 8323,
      "icul": 8324,
      "usiness": 8325,
      "ĠCab": 8326,
      "ĠWAS": 8327,
      "riam": 8328,
      "Ġstood": 8329,
      "..........": 8330,
      "ĠNoun": 8331,
      "ĠĀÂ±ă<Ā": 8332,
      "ifying": 8333,
      "Ġcomment": 8334,
      "ăÂ¯ăÂ»ă": 8335,
      "Ġdear": 8336,
      "Ġdepos": 8337,
      "ights": 8338,
      "Ġchairs": 8339,
      "ieval": 8340,
      "Ġ.'": 8341,
      "plan": 8342,
      "ober": 8343,
      "Ġcontr": 8344,
      "ĠChicago": 8345,
      "Ġ122": 8346,
      "uba": 8347,
      "Ġhelps": 8348,
      "Ġcommission": 8349,
      "Ġscen": 8350,
      "Ġscar": 8351,
      "Ġrepar": 8352,
      "ETE": 8353,
      "Ġvveather": 8354,
      "Ġbirch": 8355,
      "ĠÐĲ": 8356,
      "Ġlesson": 8357,
      "Ġsinger": 8358,
      "Ġrefused": 8359,
      "Ġconcer": 8360,
      "Ġsecondary": 8361,
      "Ġpatient": 8362,
      "Ġobjects": 8363,
      "Ġpractical": 8364,
      "Ġpotatoes": 8365,
      "Ġsurprise": 8366,
      "Ġlimited": 8367,
      "foot": 8368,
      "footed": 8369,
      "Ġsilver": 8370,
      "someone": 8371,
      "Ġbehavior": 8372,
      "ĠHarvard": 8373,
      "Ġsadness": 8374,
      "Ġgrandmother": 8375,
      "Ġinvestig": 8376,
      "Ġsteam": 8377,
      "Ġeldest": 8378,
      "Ġdialect": 8379,
      "Ġrepeated": 8380,
      "Ġsteps": 8381,
      "Ġindex": 8382,
      "Ġintelligence": 8383,
      "Ġdollar": 8384,
      "ÉĻbÉĻl": 8385,
      "Ġdisappointed": 8386,
      "Ġarrested": 8387,
      "ĠHemisphere": 8388,
      "Ġroutine": 8389,
      "ĠAssociation": 8390,
      "Ġcompulsory": 8391,
      "Ġsignificant": 8392,
      "(>": 8393,
      "62": 8394,
      "81": 8395,
      "95": 8396,
      ":\"": 8397,
      "DN": 8398,
      "Eng": 8399,
      "LD": 8400,
      "OB": 8401,
      "ext": 8402,
      "fol": 8403,
      "fine": 8404,
      "hor": 8405,
      "lj": 8406,
      "lÉĻ": 8407,
      "td": 8408,
      "turn": 8409,
      "uo": 8410,
      "vest": 8411,
      "works": 8412,
      "ă'Ā": 8413,
      "Ġtee": 8414,
      "Ġtip": 8415,
      "Ġcrop": 8416,
      "erk": 8417,
      "Ġwaves": 8418,
      "Ġbark": 8419,
      "ĠĀÂ©": 8420,
      "Ġfear": 8421,
      "Ġmixed": 8422,
      "Ġdressed": 8423,
      "Ġlt": 8424,
      "Ġlocked": 8425,
      "arn": 8426,
      "alty": 8427,
      "always": 8428,
      "ĠTem": 8429,
      "ĠIdon": 8430,
      "ĠSal": 8431,
      "Ġia": 8432,
      "Ġiv": 8433,
      "ĠMU": 8434,
      "ĠHu": 8435,
      "Ġreign": 8436,
      "ĠOut": 8437,
      "Ġona": 8438,
      "riz": 8439,
      "ilies": 8440,
      "ĠNone": 8441,
      "urse": 8442,
      "ooab": 8443,
      "ĠRail": 8444,
      "ulated": 8445,
      "ĠFR": 8446,
      "Ġka": 8447,
      "Ġshine": 8448,
      "Ġshoot": 8449,
      "ĠVice": 8450,
      "ĠâĢĶâĢĶâĢĶâĢĶâĢĶ": 8451,
      "Ġsex": 8452,
      "Ġclos": 8453,
      "Ġpartners": 8454,
      "Ġprec": 8455,
      "Ġpermanent": 8456,
      "ĠAnge": 8457,
      "acters": 8458,
      "Ġrose": 8459,
      "Ġroots": 8460,
      "xture": 8461,
      "Ā:Ā.Ā.ĀĘ": 8462,
      "contin": 8463,
      "ĠĀÂ»ăÂ¯ă": 8464,
      "being": 8465,
      "Ġserved": 8466,
      "Ġremind": 8467,
      "ĠPhilipp": 8468,
      "Ġadvise": 8469,
      "Ġadvanced": 8470,
      "Ġinterpre": 8471,
      "Ġinterrupt": 8472,
      "Ġguess": 8473,
      "flr": 8474,
      "ĠVVhen": 8475,
      "Ġprovin": 8476,
      "Ġprovince": 8477,
      "Ġruns": 8478,
      "ĠShould": 8479,
      "ĠSeven": 8480,
      "Ġdepressed": 8481,
      "Ġpainter": 8482,
      "Ġmodel": 8483,
      "Ġhandle": 8484,
      "Ġfund": 8485,
      "Ġlaughter": 8486,
      "Ġcafe": 8487,
      "Ġdetect": 8488,
      "working": 8489,
      "after": 8490,
      "Ġcrisis": 8491,
      "Ġconfused": 8492,
      "Ġhealthy": 8493,
      "ĠCommons": 8494,
      "Ġrecognize": 8495,
      "Ġhole": 8496,
      "Ġpicked": 8497,
      "ĠEgyptian": 8498,
      "ĠDesign": 8499,
      "Ġrubber": 8500,
      "ĠJewish": 8501,
      "Ġintelligent": 8502,
      "ĠĀąğ": 8503,
      "Ġpollution": 8504,
      "Ġthousand": 8505,
      "DE": 8506,
      "IES": 8507,
      "VV": 8508,
      "Vision": 8509,
      "cur": 8510,
      "des": 8511,
      "equ": 8512,
      "fil": 8513,
      "faced": 8514,
      "har": 8515,
      "ios": 8516,
      "iards": 8517,
      "pot": 8518,
      "tm": 8519,
      "uv": 8520,
      "Ġaer": 8521,
      "Ġses": 8522,
      "Ġcore": 8523,
      "Ġcav": 8524,
      "Ġcouncil": 8525,
      "Ġmad": 8526,
      "order": 8527,
      "Ġdd": 8528,
      "Ġete": 8529,
      "arse": 8530,
      "Ġinthe": 8531,
      "ĠTw": 8532,
      "Ġga": 8533,
      "Ġgy": 8534,
      "Ġgent": 8535,
      "Ġgather": 8536,
      "icians": 8537,
      "ĠSil": 8538,
      "ĠSur": 8539,
      "ĠWed": 8540,
      "Ġ//": 8541,
      "ĠMM": 8542,
      "Ġvirt": 8543,
      "utions": 8544,
      "Ġbeard": 8545,
      "ĠHE": 8546,
      "Ġreward": 8547,
      "Ġisl": 8548,
      "ĠEp": 8549,
      "Ġfora": 8550,
      "seen": 8551,
      "chmark": 8552,
      "rived": 8553,
      "ĠDom": 8554,
      "roat": 8555,
      "term": 8556,
      "tering": 8557,
      "ĠGreen": 8558,
      "Ġkid": 8559,
      "Ġkick": 8560,
      "Ġunt": 8561,
      "Ġprocl": 8562,
      "Ġadhe": 8563,
      "Ġvvind": 8564,
      "ĠKO": 8565,
      "ĠThink": 8566,
      "Ġspending": 8567,
      "Ġimper": 8568,
      "Ġcarpet": 8569,
      "Ġcomposed": 8570,
      "ĠChildren": 8571,
      "Ġ124": 8572,
      "Ġbrid": 8573,
      "wealth": 8574,
      "Ġsmoke": 8575,
      "hedral": 8576,
      "Ġ133": 8577,
      "ĠĀÂ¸ă\\Ă": 8578,
      "Ġoldest": 8579,
      "Ġopposition": 8580,
      "OUS": 8581,
      "ĠImprint": 8582,
      "Ġentries": 8583,
      "Ġvveek": 8584,
      "Ġwaited": 8585,
      "END": 8586,
      "Ġ242": 8587,
      "Ġextent": 8588,
      "ĠĀ(Ā?Ā)Ā;Ā": 8589,
      "Ġcharged": 8590,
      "ĠColumb": 8591,
      "Ġfounded": 8592,
      "Ġlaid": 8593,
      "ăÂ·ăÂ»ă": 8594,
      "Ġdeveloping": 8595,
      "III": 8596,
      "ervative": 8597,
      "Ġbrill": 8598,
      "ĠClare": 8599,
      "Ġsuperlative": 8600,
      "ĠEdward": 8601,
      "Ġestablish": 8602,
      "Ġmaterials": 8603,
      "Ġjuice": 8604,
      "ispheres": 8605,
      "Ġfields": 8606,
      "igitalVision": 8607,
      "ĠOctober": 8608,
      "Ġresponsibility": 8609,
      "Ġappointment": 8610,
      "Ġbalance": 8611,
      "Ġmotorway": 8612,
      "Ā/Ā.Ā": 8613,
      "ĠTerritory": 8614,
      "Ġlandscape": 8615,
      "Ġscholar": 8616,
      "Ġexhausted": 8617,
      "Ġabbreviations": 8618,
      "Ġsplit": 8619,
      "ĠFederal": 8620,
      "Ġillegal": 8621,
      "ĠDirector": 8622,
      "ĠcafÃ©": 8623,
      "Ġvideo": 8624,
      "Ġqueue": 8625,
      "ĠRoosevelt": 8626,
      ")Ā.Ā.Ā": 8627,
      "42": 8628,
      "AF": 8629,
      "Have": 8630,
      "Iz": 8631,
      "Ml": 8632,
      "Se": 8633,
      "TO": 8634,
      "bat": 8635,
      "good": 8636,
      "lk": 8637,
      "liness": 8638,
      "mitted": 8639,
      "rÉĻ": 8640,
      "rÄ±": 8641,
      "ser": 8642,
      "sent": 8643,
      "tri": 8644,
      "Ġaj": 8645,
      "Ġpv": 8646,
      "Ġ.Āę": 8647,
      "Ġfaster": 8648,
      "Ġmouse": 8649,
      "Ġlosing": 8650,
      "ali": 8651,
      "alog": 8652,
      "Ġana": 8653,
      "Ġane": 8654,
      "ĠTT": 8655,
      "ĠTri": 8656,
      "ĠIM": 8657,
      "ĠAar": 8658,
      "Ġgall": 8659,
      "ĠSW": 8660,
      "ĠSorry": 8661,
      "ete": 8662,
      "ĠCy": 8663,
      "ĠCross": 8664,
      "Ġrice": 8665,
      "Ā]Ā-Ā": 8666,
      "Ġrely": 8667,
      "ĠPerson": 8668,
      "ĠEX": 8669,
      "ĠBoston": 8670,
      "ĠLiz": 8671,
      "rii": 8672,
      "Ġstrate": 8673,
      "ĠDay": 8674,
      "ĠNove": 8675,
      "Ā>Ā]Ā<Ā": 8676,
      "Ġjur": 8677,
      "Ġshot": 8678,
      "Ġshade": 8679,
      "ăÂ¯ăÂ´ăÂ·ă": 8680,
      "Ġcancer": 8681,
      "ĠVe": 8682,
      "Ġabroad": 8683,
      "ourse": 8684,
      "ĠWhite": 8685,
      "Ġselling": 8686,
      "udge": 8687,
      "agement": 8688,
      "vvard": 8689,
      "Ġally": 8690,
      "Ġherb": 8691,
      "Ġknocked": 8692,
      "Ġ102": 8693,
      "ĠStat": 8694,
      "Ġbull": 8695,
      "Ġtroub": 8696,
      "Ġ134": 8697,
      "Ġblame": 8698,
      "Ġterror": 8699,
      "Ġsculpt": 8700,
      "ăÂ´ăÂ¯ăÂ±ă": 8701,
      "ĠAddress": 8702,
      "orses": 8703,
      "Ġministry": 8704,
      "ĠPhot": 8705,
      "should": 8706,
      "Ġfamiliar": 8707,
      "Ġcourses": 8708,
      "ERERRR": 8709,
      "Ġsuppose": 8710,
      "ungary": 8711,
      "Ġpointed": 8712,
      "Ġ...............................": 8713,
      "Ġelections": 8714,
      "Ġroads": 8715,
      "Ġmainly": 8716,
      "Ġmaintain": 8717,
      "Ġresulted": 8718,
      "amental": 8719,
      "Ġdescribed": 8720,
      "Ā%Ă,Ā": 8721,
      "ĠSomething": 8722,
      "Ġjoining": 8723,
      "Ġvisiting": 8724,
      "Ġrepresented": 8725,
      "Ġprogrammes": 8726,
      "Ġcopies": 8727,
      "ĠCommission": 8728,
      "Ġdefend": 8729,
      "Ġquietly": 8730,
      "Ġvolume": 8731,
      "Ġfishing": 8732,
      "Ġprinciple": 8733,
      "Ġborrowed": 8734,
      "Ġquantity": 8735,
      "ĠIllust": 8736,
      "Ġarrangements": 8737,
      "ĠCheck": 8738,
      "Ġelderly": 8739,
      "Ġtarget": 8740,
      "Ġsafely": 8741,
      "ĠFebru": 8742,
      "ĠRoad": 8743,
      "ăÂ¿ăÂ´ă-Ā,Ā": 8744,
      "Ġadvantages": 8745,
      "Ġjournalist": 8746,
      "Ġspirit": 8747,
      "Ġbeliefs": 8748,
      "Ġcommercial": 8749,
      "ĠBelgium": 8750,
      "Ġvirus": 8751,
      "Ġempire": 8752,
      "ĠSwitzer": 8753,
      "ĠSeptember": 8754,
      "##": 8755,
      "85": 8756,
      "Ing": 8757,
      "My": 8758,
      "Phot": 8759,
      "ais": 8760,
      "fy": 8761,
      "gram": 8762,
      "iim": 8763,
      "kp": 8764,
      "nit": 8765,
      "ray": 8766,
      "then": 8767,
      "went": 8768,
      "wish": 8769,
      "~ā": 8770,
      "Ġtent": 8771,
      "Ġtel": 8772,
      "Ġsilly": 8773,
      "rely": 8774,
      "enjoy": 8775,
      "encies": 8776,
      "orate": 8777,
      "Ġeo": 8778,
      "Ġnd": 8779,
      "Ġnt": 8780,
      "Ġnomin": 8781,
      "Ġanxious": 8782,
      "Ġinhab": 8783,
      "ĠTransitive": 8784,
      "Āāā{Ā": 8785,
      "ĠAut": 8786,
      "ĠAst": 8787,
      "ĠAge": 8788,
      "Ġ(âĢĺ": 8789,
      "icit": 8790,
      "ĠSP": 8791,
      "ĠSouthern": 8792,
      "ĠCre": 8793,
      "ĠCze": 8794,
      "ĠWOR": 8795,
      "Ġrug": 8796,
      "Ġidi": 8797,
      "Ā]Ā)Ā": 8798,
      "Ġvil": 8799,
      "Ġvary": 8800,
      "Ġvoy": 8801,
      "Ġrect": 8802,
      "ĠEll": 8803,
      "sts": 8804,
      "ĠBO": 8805,
      "oles": 8806,
      "Ġham": 8807,
      "cel": 8808,
      "ĠNOW": 8809,
      "imal": 8810,
      "Ġital": 8811,
      "ĠFE": 8812,
      "Ġweigh": 8813,
      "Ġwealth": 8814,
      "Ġatom": 8815,
      "than": 8816,
      "ersion": 8817,
      "arts": 8818,
      "Ġalt": 8819,
      "Ġchip": 8820,
      "illing": 8821,
      "Ġplun": 8822,
      "iece": 8823,
      "ğÂ·ă": 8824,
      "agger": 8825,
      "Ġformula": 8826,
      "anges": 8827,
      "Ġappeal": 8828,
      "Ġfool": 8829,
      "phy": 8830,
      "ă)Ā;Ā": 8831,
      "Ġemb": 8832,
      "ansas": 8833,
      "cyclop": 8834,
      "Ġobst": 8835,
      "Ġsurv": 8836,
      "Ġtrains": 8837,
      "Ġapost": 8838,
      "Ġextended": 8839,
      "Ġdrag": 8840,
      "Ġcharacters": 8841,
      "ĠColor": 8842,
      "ertaining": 8843,
      "Ġ................................................": 8844,
      "Ġcrib": 8845,
      "Ġprotest": 8846,
      "ylon": 8847,
      "Ġchecking": 8848,
      "Ġeffectively": 8849,
      "Ġcosts": 8850,
      "Ġcritical": 8851,
      "Ġcrossing": 8852,
      "Ġburning": 8853,
      "Ġtourist": 8854,
      "ĂăăÂ": 8855,
      "Ġ..........": 8856,
      "Ġadmitted": 8857,
      "Ġsweater": 8858,
      "Ġapologised": 8859,
      "Ġderiv": 8860,
      "Ġcontrolled": 8861,
      "Ġmultiple": 8862,
      "Ġnucle": 8863,
      "Ġpersuade": 8864,
      "Ġbodies": 8865,
      "Ġalpine": 8866,
      "Ġexplosion": 8867,
      "Ġlaptop": 8868,
      "./": 8869,
      "93": 8870,
      "Don": 8871,
      "Ts": 8872,
      "ao": 8873,
      "fire": 8874,
      "gre": 8875,
      "him": 8876,
      "might": 8877,
      "pd": 8878,
      "too": 8879,
      "tical": 8880,
      "wi": 8881,
      "want": 8882,
      "Ñĥ": 8883,
      "ā(Ā": 8884,
      "ă/Ā": 8885,
      "ĠÅ": 8886,
      "Ġich": 8887,
      "Ā-ĀÂĥĂ": 8888,
      "ĠĀ(Ā'Ā": 8889,
      "ĠĀ(ĀĀğ": 8890,
      "Ġtn": 8891,
      "Ġsink": 8892,
      "Ā]Ā)Ā.Ā": 8893,
      "Ġos": 8894,
      "Ġww": 8895,
      "Ġbomb": 8896,
      "Ġfold": 8897,
      "itize": 8898,
      "isn": 8899,
      "isure": 8900,
      "org": 8901,
      "orous": 8902,
      "Ġeve": 8903,
      "Ġloos": 8904,
      "Ġanalysis": 8905,
      "ĠIhe": 8906,
      "Ġgain": 8907,
      "ĠSince": 8908,
      "ĠSugg": 8909,
      "ĠCust": 8910,
      "ĠCreat": 8911,
      "ĠMel": 8912,
      "ĠMoney": 8913,
      "ĠMerc": 8914,
      "aying": 8915,
      "ĠEastern": 8916,
      "ĠLife": 8917,
      "Ġstuck": 8918,
      "oover": 8919,
      "Ġasks": 8920,
      "ĠUt": 8921,
      "Ġwashed": 8922,
      "...?": 8923,
      "oung": 8924,
      "Ġships": 8925,
      "Ġunite": 8926,
      "Ā>Ā)Ā]Ā": 8927,
      "ureau": 8928,
      "Ġpartly": 8929,
      "earch": 8930,
      "ĠThrough": 8931,
      "Ġspo": 8932,
      "Ġspark": 8933,
      "Ġ117": 8934,
      "Ā:Ā.Ā.Ā(Ā": 8935,
      "Ā%Ā,Ā": 8936,
      "Ġdownload": 8937,
      "Ġaccent": 8938,
      "Ġhelping": 8939,
      "Ġcommand": 8940,
      "ăÂ¸ăÂ¿ă-Ā": 8941,
      "Ġ143": 8942,
      "Ġ145": 8943,
      "ĠÄ°ust": 8944,
      "Ġdesire": 8945,
      "ibilities": 8946,
      "Ġsimply": 8947,
      "Â».": 8948,
      "Â»/": 8949,
      "mands": 8950,
      "Ġattach": 8951,
      "Ġevenings": 8952,
      "lovv": 8953,
      "Ġguests": 8954,
      "Ġcenter": 8955,
      "Ġsurf": 8956,
      "Ġdisturb": 8957,
      "ENE": 8958,
      "Ġartist": 8959,
      "ğÂ´ăÂ±ă": 8960,
      "ikes": 8961,
      "Ġsuggestion": 8962,
      "Ġplanet": 8963,
      "Ġinsisted": 8964,
      "Ġfallen": 8965,
      "ĠOrgan": 8966,
      "Ġchecked": 8967,
      "Ġannual": 8968,
      "Ġoperations": 8969,
      "Ġissued": 8970,
      "Ġcharacteristic": 8971,
      "gency": 8972,
      "Ġmatters": 8973,
      "Ġappears": 8974,
      "know": 8975,
      "Ġviolence": 8976,
      "ĠSystem": 8977,
      "ĠConstant": 8978,
      "Ġreduction": 8979,
      "Ġearthqu": 8980,
      "Ġclimb": 8981,
      "ĠBlack": 8982,
      "Ġreligion": 8983,
      "ă}ğÂ´ăÂ·ă": 8984,
      "Ġspectac": 8985,
      "Ġoccasionally": 8986,
      "Ġcorresponding": 8987,
      "Ġcousin": 8988,
      "ĠVirginia": 8989,
      "ĠFebruary": 8990,
      "Ir": 8991,
      "MS": 8992,
      "YOU": 8993,
      "aj": 8994,
      "oss": 8995,
      "vr": 8996,
      "°Ā": 8997,
      "Â¸ă": 8998,
      "Ġ;Ā.Ā.Ā": 8999,
      "Ġtap": 9000,
      "ĠĀ-Ā{Ā": 9001,
      "Ġauth": 9002,
      "help": 9003,
      "Ġsoci": 9004,
      "Ġcu": 9005,
      "Ġcow": 9006,
      "Ġpic": 9007,
      "Ġbanks": 9008,
      "Ġbump": 9009,
      "Ġdull": 9010,
      "Ġei": 9011,
      "Ġnic": 9012,
      "ĠTransp": 9013,
      "ĠIj": 9014,
      "ĠAO": 9015,
      "Ġgate": 9016,
      "Ā}Āāā": 9017,
      "Ġih": 9018,
      "Ā]Ā'Ā": 9019,
      "ĠMic": 9020,
      "Ġvast": 9021,
      "ĠHong": 9022,
      "ĠPack": 9023,
      "ĠOE": 9024,
      "ĠOH": 9025,
      "ĠElec": 9026,
      "ida": 9027,
      "ĠBU": 9028,
      "ĠLow": 9029,
      "ĠLitt": 9030,
      "Ā+ā)Ā": 9031,
      "Ġstuff": 9032,
      "ĠDist": 9033,
      "ĠDoyou": 9034,
      "ilit": 9035,
      "ading": 9036,
      "ĠFalse": 9037,
      "rael": 9038,
      "dson": 9039,
      "unnn": 9040,
      "uncountable": 9041,
      "Ġshy": 9042,
      "Ġchicken": 9043,
      "ĠItwas": 9044,
      "Ġsole": 9045,
      "ffe": 9046,
      "Ā'Ā.Āę": 9047,
      "Ġimder": 9048,
      "ĀÂ°Āē": 9049,
      "their": 9050,
      "ĠChange": 9051,
      "Ġtwelve": 9052,
      "Ġapps": 9053,
      "Ġapparent": 9054,
      "Ġwhereas": 9055,
      "ĠÄ°n": 9056,
      "Ġdesc": 9057,
      "Ġmineral": 9058,
      "Ġgreater": 9059,
      "ĠImagine": 9060,
      "Ġfamilies": 9061,
      "Ġmarry": 9062,
      "Ġmolec": 9063,
      "Ġinstance": 9064,
      "Ġcapable": 9065,
      "Ġdraft": 9066,
      "Ġexplore": 9067,
      "Ġdiam": 9068,
      "Ġelectron": 9069,
      "Ġexpecting": 9070,
      "Ġbehave": 9071,
      "ĠComput": 9072,
      "ĠÃĺ": 9073,
      "Ġinsurance": 9074,
      "ĠAbd": 9075,
      "Ġcrew": 9076,
      "ĠInterview": 9077,
      "Ġcleaning": 9078,
      "Ġdrinks": 9079,
      "Ġpractise": 9080,
      "Ġrepresentation": 9081,
      "Ġmerchant": 9082,
      "Ġaffection": 9083,
      "ĠÑĢ": 9084,
      "Ġsweet": 9085,
      "Ġcustomer": 9086,
      "Ġcircum": 9087,
      "Ġfighting": 9088,
      "Ġshouted": 9089,
      "Ġbranches": 9090,
      "Ġdollars": 9091,
      "Ġdomest": 9092,
      "ĠNaval": 9093,
      "ĠJessica": 9094,
      "Ġdrugs": 9095,
      "Ġencourage": 9096,
      "Ġframework": 9097,
      "Ġcriminal": 9098,
      "ĠFriends": 9099,
      "Ġsustain": 9100,
      "Ġenormous": 9101,
      "Ġmathematical": 9102,
      "Ġfantastic": 9103,
      "Ġcontrast": 9104,
      "ĠSwitzerland": 9105,
      "73": 9106,
      ":**": 9107,
      "?Ā)Ā": 9108,
      "LA": 9109,
      "Tt": 9110,
      "aii": 9111,
      "bably": 9112,
      "cus": 9113,
      "days": 9114,
      "fn": 9115,
      "found": 9116,
      "ghan": 9117,
      "len": 9118,
      "last": 9119,
      "mnn": 9120,
      "mont": 9121,
      "music": 9122,
      "nar": 9123,
      "oll": 9124,
      "oqu": 9125,
      "pop": 9126,
      "sur": 9127,
      "sÄ±": 9128,
      "ties": 9129,
      "west": 9130,
      "ā-Ā,Ā": 9131,
      "ğ.Ā": 9132,
      "Ġion": 9133,
      "Ā-Ā{Ā": 9134,
      "Ġtrop": 9135,
      "Ġtips": 9136,
      "Ā)Ā.Ā.Ā,Ā": 9137,
      "inst": 9138,
      "real": 9139,
      "Ġcod": 9140,
      "Ġpars": 9141,
      "Ġpush": 9142,
      "ĀÂİĂ": 9143,
      "Ġmir": 9144,
      "Ġdig": 9145,
      "Ġdad": 9146,
      "Ġdates": 9147,
      "Ġloyal": 9148,
      "Ġlux": 9149,
      "Ġtool": 9150,
      "ĂÂĥĂÂĮĂ": 9151,
      "Ġnaut": 9152,
      "Ġanne": 9153,
      "Ġinher": 9154,
      "ĠIst": 9155,
      "ĠIdioms": 9156,
      "Ā.Ā(ĀÂ±ă)Ā": 9157,
      "ĠAer": 9158,
      "icular": 9159,
      "othe": 9160,
      "ĠCA": 9161,
      "ĠCle": 9162,
      "ĠPsych": 9163,
      "ĠLE": 9164,
      "ĠLat": 9165,
      "ĠLoc": 9166,
      "Ġstole": 9167,
      "ĠDen": 9168,
      "irts": 9169,
      "Ġworship": 9170,
      "thon": 9171,
      "Ġfrustr": 9172,
      "acious": 9173,
      "ăÂ¯ă,Ā": 9174,
      "Ġalot": 9175,
      "ĠKNOW": 9176,
      "Ġshelf": 9177,
      "Ġpride": 9178,
      "Ġcompare": 9179,
      "Ġ181": 9180,
      "Ġ1917": 9181,
      "Ġami": 9182,
      "Ġaccidents": 9183,
      "Ġjustice": 9184,
      "Ġterk": 9185,
      "athy": 9186,
      "Ġactual": 9187,
      "ologies": 9188,
      "Ġwars": 9189,
      "Ġpassage": 9190,
      "Ġregions": 9191,
      "Ġintermediate": 9192,
      "180": 9193,
      "Ġclassic": 9194,
      "Ġunderstanding": 9195,
      "Ġcattle": 9196,
      "Ġ.Ā)Ā]Ā": 9197,
      "ĀÂĢā-Ā,Ā": 9198,
      "Ġrevol": 9199,
      "Ġrevise": 9200,
      "clean": 9201,
      "Ġgird": 9202,
      "vania": 9203,
      "Ġdivor": 9204,
      "chester": 9205,
      "Ġauthorities": 9206,
      "Ġ1920": 9207,
      "Ġpowerful": 9208,
      "Ġrepresenting": 9209,
      "ĠOhio": 9210,
      "ĠCommunic": 9211,
      "Ġsorted": 9212,
      "Ġgrowing": 9213,
      "vveen": 9214,
      "Ġrequired": 9215,
      "Ġaffected": 9216,
      "ILL": 9217,
      "Ġclaimed": 9218,
      "ĠÑģ": 9219,
      "ĠSpecial": 9220,
      "Ġcompleted": 9221,
      "Ġreturned": 9222,
      "Ġreferred": 9223,
      "ĠKingdom": 9224,
      "Ġpersist": 9225,
      "Ā/Ā-Ā": 9226,
      "Ġacquired": 9227,
      "Ġrepeat": 9228,
      "Units": 9229,
      "Ġmulti": 9230,
      "Ġunfair": 9231,
      "ĠSubconscious": 9232,
      "Ġbenefit": 9233,
      "Ġamazed": 9234,
      "Ġheavily": 9235,
      "ĠBulgar": 9236,
      "Ġconcerned": 9237,
      "ĠExcuse": 9238,
      "ĠPanama": 9239,
      "rehensive": 9240,
      "54": 9241,
      "68": 9242,
      "KE": 9243,
      "LO": 9244,
      "OC": 9245,
      "RWN": 9246,
      "Sl": 9247,
      "Uc": 9248,
      "\\'": 9249,
      "cm": 9250,
      "cat": 9251,
      "eenth": 9252,
      "fly": 9253,
      "graph": 9254,
      "hour": 9255,
      "lit": 9256,
      "lil": 9257,
      "lock": 9258,
      "nings": 9259,
      "rT": 9260,
      "wing": 9261,
      "woman": 9262,
      "zi": 9263,
      "|)": 9264,
      "ā)Ā": 9265,
      "Ā)Ā/Ā": 9266,
      "Ġtab": 9267,
      "Ġtons": 9268,
      "Ġtables": 9269,
      "Ġtenses": 9270,
      "Ġais": 9271,
      "Ġaunt": 9272,
      "Ġsack": 9273,
      "Ġoi": 9274,
      "oni": 9275,
      "oned": 9276,
      "Ġpink": 9277,
      "Ġpale": 9278,
      "itals": 9279,
      "Ġmos": 9280,
      "Ġdust": 9281,
      "esc": 9282,
      "Ġlatter": 9283,
      "Ġnit": 9284,
      "Ġnamed": 9285,
      "Ġanc": 9286,
      "Ġanger": 9287,
      "Ġinten": 9288,
      "ĠAEE": 9289,
      "Ġgran": 9290,
      "Ā}Ā:Ā": 9291,
      "ĠSI": 9292,
      "ĠSally": 9293,
      "ĠSuch": 9294,
      "Ā.Ā]Ā.Āę": 9295,
      "entially": 9296,
      "ĠWO": 9297,
      "Ġrays": 9298,
      "ĠMY": 9299,
      "ĠMath": 9300,
      "Ġvr": 9301,
      "ĠHoover": 9302,
      "ĠLake": 9303,
      "Ġonto": 9304,
      "Ġhel": 9305,
      "ĠNet": 9306,
      "adium": 9307,
      "oop": 9308,
      "ĠRos": 9309,
      "ĠFlor": 9310,
      "ĠJer": 9311,
      "Ġexists": 9312,
      "atever": 9313,
      "things": 9314,
      "Ġjoint": 9315,
      "ifies": 9316,
      "Ġdemands": 9317,
      "ĠKatherine": 9318,
      "Ġseas": 9319,
      "Ġformation": 9320,
      "anging": 9321,
      "ĠĀ[ā": 9322,
      "Ġpoly": 9323,
      "Ġflre": 9324,
      "ferent": 9325,
      "Ġgrown": 9326,
      "cked": 9327,
      "ğÂ»ă-ĀÂ¿ă": 9328,
      "Ġeverywhere": 9329,
      "Ġexpenses": 9330,
      "Ġchess": 9331,
      "Ġ152": 9332,
      "Ġputs": 9333,
      "Ġsche": 9334,
      "Ġscene": 9335,
      "issors": 9336,
      "ĠAlbert": 9337,
      "Ġinvent": 9338,
      "Ġmeets": 9339,
      "Ġharder": 9340,
      "Ġmonarch": 9341,
      "ieties": 9342,
      "Ġentrance": 9343,
      "Ġdistin": 9344,
      "Ġcourts": 9345,
      "nsyl": 9346,
      "Ġbedtime": 9347,
      "Ġproducing": 9348,
      "ĠPaula": 9349,
      "ducing": 9350,
      "ĠAbout": 9351,
      "Ġthoughts": 9352,
      "Ġsumm": 9353,
      "Ġcausing": 9354,
      "ĠMineral": 9355,
      "iliary": 9356,
      "Ġbeauty": 9357,
      "Ġcombinations": 9358,
      "Ġsuffixes": 9359,
      "ĠCommittee": 9360,
      "Ġconsiderable": 9361,
      "Ġsilk": 9362,
      "ilson": 9363,
      "Ġreduced": 9364,
      "Ġsells": 9365,
      "Ġproposed": 9366,
      "ĠBrazilian": 9367,
      "Ġtighten": 9368,
      "Ġmotorbike": 9369,
      "Ġmovies": 9370,
      "ĠResearch": 9371,
      "Ġrelaxed": 9372,
      "ĠContin": 9373,
      "ĠPronunciation": 9374,
      "Ġsatisfact": 9375,
      "ĠMerriam": 9376,
      "Ġbasketball": 9377,
      "Ġsynonym": 9378,
      "Ġerrors": 9379,
      "Shall": 9380,
      "ĠHugo": 9381,
      "ĠVictoria": 9382,
      "gorith": 9383,
      "Āćā": 9384,
      "Ġstimul": 9385,
      "!Āę": 9386,
      "87": 9387,
      "<>": 9388,
      "Note": 9389,
      "ez": 9390,
      "jam": 9391,
      "kle": 9392,
      "must": 9393,
      "making": 9394,
      "rp": 9395,
      "top": 9396,
      "xi": 9397,
      "ÃŃ": 9398,
      "ÄŁ": 9399,
      "Ġvel": 9400,
      "Ā-Ā<Ā/Ā": 9401,
      "Ā'Ā;Ā": 9402,
      "Ā'Ā{Ā": 9403,
      "Ġail": 9404,
      "Ā:Ā]Ā": 9405,
      "heel": 9406,
      "Ġsore": 9407,
      "Ā]Āę": 9408,
      "Ġcs": 9409,
      "Ġcott": 9410,
      "Ġcurious": 9411,
      "Ġpor": 9412,
      "Ġpound": 9413,
      "Ġbib": 9414,
      "Ġflex": 9415,
      "Ġmission": 9416,
      "ĠlIl": 9417,
      "Ġnom": 9418,
      "Ġinqu": 9419,
      "ĠTen": 9420,
      "ĠIH": 9421,
      "ĠAh": 9422,
      "Ġgolf": 9423,
      "vet": 9424,
      "leave": 9425,
      "ĠCD": 9426,
      "ĠCla": 9427,
      "ĠWal": 9428,
      "Ġrates": 9429,
      "Ġorange": 9430,
      "ĠPA": 9431,
      "ĠBa": 9432,
      "ĠBol": 9433,
      "ĠLog": 9434,
      "Ġstir": 9435,
      "ĠNap": 9436,
      "urry": 9437,
      "Ā?Ā,Ā": 9438,
      "Ġconj": 9439,
      "Ġconce": 9440,
      "Ġ.Ā.Ā;Ā": 9441,
      "unte": 9442,
      "Ġunex": 9443,
      "Ġproport": 9444,
      "hentic": 9445,
      "aped": 9446,
      "Ġvvrong": 9447,
      "ĠKong": 9448,
      "vvord": 9449,
      "Ā>Ā)Ā(Ā": 9450,
      "Ġence": 9451,
      "Ġencl": 9452,
      "together": 9453,
      "Ġknife": 9454,
      "anyone": 9455,
[...]
